{
  "version": "1.0",
  "truncation": {
    "direction": "Right",
    "max_length": 384,
    "strategy": "OnlySecond",
    "stride": 128
  },
  "padding": {
    "strategy": {
      "Fixed": 384
    },
    "direction": "Right",
    "pad_to_multiple_of": null,
    "pad_id": 0,
    "pad_type_id": 0,
    "pad_token": "[PAD]"
  },
  "added_tokens": [
    {
      "id": 0,
      "content": "[PAD]",
      "single_word": false,
      "lstrip": false,
      "rstrip": false,
      "normalized": false,
      "special": true
    },
    {
      "id": 100,
      "content": "[UNK]",
      "single_word": false,
      "lstrip": false,
      "rstrip": false,
      "normalized": false,
      "special": true
    },
    {
      "id": 101,
      "content": "[CLS]",
      "single_word": false,
      "lstrip": false,
      "rstrip": false,
      "normalized": false,
      "special": true
    },
    {
      "id": 102,
      "content": "[SEP]",
      "single_word": false,
      "lstrip": false,
      "rstrip": false,
      "normalized": false,
      "special": true
    },
    {
      "id": 103,
      "content": "[MASK]",
      "single_word": false,
      "lstrip": false,
      "rstrip": false,
      "normalized": false,
      "special": true
    }
  ],
  "normalizer": {
    "type": "BertNormalizer",
    "clean_text": true,
    "handle_chinese_chars": true,
    "strip_accents": null,
    "lowercase": false
  },
  "pre_tokenizer": {
    "type": "BertPreTokenizer"
  },
  "post_processor": {
    "type": "TemplateProcessing",
    "single": [
      {
        "SpecialToken": {
          "id": "[CLS]",
          "type_id": 0
        }
      },
      {
        "Sequence": {
          "id": "A",
          "type_id": 0
        }
      },
      {
        "SpecialToken": {
          "id": "[SEP]",
          "type_id": 0
        }
      }
    ],
    "pair": [
      {
        "SpecialToken": {
          "id": "[CLS]",
          "type_id": 0
        }
      },
      {
        "Sequence": {
          "id": "A",
          "type_id": 0
        }
      },
      {
        "SpecialToken": {
          "id": "[SEP]",
          "type_id": 0
        }
      },
      {
        "Sequence": {
          "id": "B",
          "type_id": 1
        }
      },
      {
        "SpecialToken": {
          "id": "[SEP]",
          "type_id": 1
        }
      }
    ],
    "special_tokens": {
      "[CLS]": {
        "id": "[CLS]",
        "ids": [
          101
        ],
        "tokens": [
          "[CLS]"
        ]
      },
      "[SEP]": {
        "id": "[SEP]",
        "ids": [
          102
        ],
        "tokens": [
          "[SEP]"
        ]
      }
    }
  },
  "decoder": {
    "type": "WordPiece",
    "prefix": "##",
    "cleanup": true
  },
  "model": {
    "type": "WordPiece",
    "unk_token": "[UNK]",
    "continuing_subword_prefix": "##",
    "max_input_chars_per_word": 100,
    "vocab": {
      "[PAD]": 0,
      "[unused1]": 1,
      "[unused2]": 2,
      "[unused3]": 3,
      "[unused4]": 4,
      "[unused5]": 5,
      "[unused6]": 6,
      "[unused7]": 7,
      "[unused8]": 8,
      "[unused9]": 9,
      "[unused10]": 10,
      "[unused11]": 11,
      "[unused12]": 12,
      "[unused13]": 13,
      "[unused14]": 14,
      "[unused15]": 15,
      "[unused16]": 16,
      "[unused17]": 17,
      "[unused18]": 18,
      "[unused19]": 19,
      "[unused20]": 20,
      "[unused21]": 21,
      "[unused22]": 22,
      "[unused23]": 23,
      "[unused24]": 24,
      "[unused25]": 25,
      "[unused26]": 26,
      "[unused27]": 27,
      "[unused28]": 28,
      "[unused29]": 29,
      "[unused30]": 30,
      "[unused31]": 31,
      "[unused32]": 32,
      "[unused33]": 33,
      "[unused34]": 34,
      "[unused35]": 35,
      "[unused36]": 36,
      "[unused37]": 37,
      "[unused38]": 38,
      "[unused39]": 39,
      "[unused40]": 40,
      "[unused41]": 41,
      "[unused42]": 42,
      "[unused43]": 43,
      "[unused44]": 44,
      "[unused45]": 45,
      "[unused46]": 46,
      "[unused47]": 47,
      "[unused48]": 48,
      "[unused49]": 49,
      "[unused50]": 50,
      "[unused51]": 51,
      "[unused52]": 52,
      "[unused53]": 53,
      "[unused54]": 54,
      "[unused55]": 55,
      "[unused56]": 56,
      "[unused57]": 57,
      "[unused58]": 58,
      "[unused59]": 59,
      "[unused60]": 60,
      "[unused61]": 61,
      "[unused62]": 62,
      "[unused63]": 63,
      "[unused64]": 64,
      "[unused65]": 65,
      "[unused66]": 66,
      "[unused67]": 67,
      "[unused68]": 68,
      "[unused69]": 69,
      "[unused70]": 70,
      "[unused71]": 71,
      "[unused72]": 72,
      "[unused73]": 73,
      "[unused74]": 74,
      "[unused75]": 75,
      "[unused76]": 76,
      "[unused77]": 77,
      "[unused78]": 78,
      "[unused79]": 79,
      "[unused80]": 80,
      "[unused81]": 81,
      "[unused82]": 82,
      "[unused83]": 83,
      "[unused84]": 84,
      "[unused85]": 85,
      "[unused86]": 86,
      "[unused87]": 87,
      "[unused88]": 88,
      "[unused89]": 89,
      "[unused90]": 90,
      "[unused91]": 91,
      "[unused92]": 92,
      "[unused93]": 93,
      "[unused94]": 94,
      "[unused95]": 95,
      "[unused96]": 96,
      "[unused97]": 97,
      "[unused98]": 98,
      "[unused99]": 99,
      "[UNK]": 100,
      "[CLS]": 101,
      "[SEP]": 102,
      "[MASK]": 103,
      "о": 104,
      "е": 105,
      "а": 106,
      "и": 107,
      "н": 108,
      "т": 109,
      "с": 110,
      "р": 111,
      "л": 112,
      "в": 113,
      "к": 114,
      "м": 115,
      "д": 116,
      "п": 117,
      "у": 118,
      "я": 119,
      "ы": 120,
      ",": 121,
      "г": 122,
      "ь": 123,
      "б": 124,
      "з": 125,
      ".": 126,
      "ч": 127,
      "й": 128,
      "ж": 129,
      "х": 130,
      "ш": 131,
      "ю": 132,
      "-": 133,
      "ц": 134,
      "щ": 135,
      "э": 136,
      "С": 137,
      "В": 138,
      "ф": 139,
      "П": 140,
      "1": 141,
      "К": 142,
      "Н": 143,
      "0": 144,
      "А": 145,
      "О": 146,
      "М": 147,
      "Р": 148,
      "2": 149,
      "»": 150,
      "«": 151,
      "\"": 152,
      "Д": 153,
      "Т": 154,
      "И": 155,
      "e": 156,
      "Б": 157,
      ")": 158,
      "9": 159,
      "(": 160,
      "?": 161,
      ":": 162,
      "Г": 163,
      "a": 164,
      "o": 165,
      "ё": 166,
      "5": 167,
      "3": 168,
      "r": 169,
      "i": 170,
      "4": 171,
      "t": 172,
      "У": 173,
      "Л": 174,
      "n": 175,
      "Е": 176,
      "!": 177,
      "8": 178,
      "—": 179,
      "6": 180,
      "Ф": 181,
      "7": 182,
      "s": 183,
      "З": 184,
      "Э": 185,
      "Я": 186,
      "l": 187,
      "u": 188,
      "Ч": 189,
      "Х": 190,
      "Ш": 191,
      "ъ": 192,
      "d": 193,
      "…": 194,
      "h": 195,
      "c": 196,
      "/": 197,
      "m": 198,
      ";": 199,
      "I": 200,
      "p": 201,
      "S": 202,
      "g": 203,
      "–": 204,
      "і": 205,
      "A": 206,
      "y": 207,
      "Ц": 208,
      "T": 209,
      "%": 210,
      "Ж": 211,
      "b": 212,
      "f": 213,
      "C": 214,
      "k": 215,
      "R": 216,
      "w": 217,
      "M": 218,
      "E": 219,
      "Ю": 220,
      "N": 221,
      "P": 222,
      "v": 223,
      "B": 224,
      "D": 225,
      "F": 226,
      "X": 227,
      "W": 228,
      "G": 229,
      "V": 230,
      "L": 231,
      "H": 232,
      "_": 233,
      "O": 234,
      "Đ": 235,
      "́": 236,
      "U": 237,
      "&": 238,
      "x": 239,
      "]": 240,
      "[": 241,
      "=": 242,
      "Й": 243,
      "z": 244,
      "'": 245,
      "K": 246,
      "q": 247,
      "№": 248,
      "“": 249,
      "+": 250,
      "$": 251,
      "ї": 252,
      "J": 253,
      ">": 254,
      "°": 255,
      "*": 256,
      "Ń": 257,
      "”": 258,
      "Y": 259,
      "­": 260,
      "є": 261,
      "#": 262,
      "j": 263,
      "<": 264,
      "„": 265,
      "’": 266,
      "ѕ": 267,
      "Ы": 268,
      "Ь": 269,
      "@": 270,
      "Z": 271,
      "Щ": 272,
      "µ": 273,
      "|": 274,
      "‚": 275,
      "І": 276,
      "Ѕ": 277,
      "Q": 278,
      "−": 279,
      "Ђ": 280,
      "ž": 281,
      "Ѓ": 282,
      "•": 283,
      "": 284,
      "²": 285,
      "ľ": 286,
      "→": 287,
      "¸": 288,
      "é": 289,
      "˝": 290,
      "": 291,
      "ј": 292,
      "©": 293,
      "ў": 294,
      "€": 295,
      "ґ": 296,
      "": 297,
      "}": 298,
      "{": 299,
      "ѣ": 300,
      "": 301,
      "ť": 302,
      "Ё": 303,
      "·": 304,
      "˛": 305,
      "​": 306,
      "ѓ": 307,
      "\\": 308,
      "‹": 309,
      "Џ": 310,
      "ş": 311,
      "±": 312,
      "ź": 313,
      "´": 314,
      "": 315,
      "ż": 316,
      "Њ": 317,
      "": 318,
      "~": 319,
      "ü": 320,
      "‡": 321,
      "×": 322,
      "‘": 323,
      "ä": 324,
      "": 325,
      "ł": 326,
      "á": 327,
      "š": 328,
      "α": 329,
      "Ъ": 330,
      "̶": 331,
      "Є": 332,
      "": 333,
      "ą": 334,
      "": 335,
      "†": 336,
      "ο": 337,
      "ˇ": 338,
      "ó": 339,
      "¶": 340,
      "ö": 341,
      "": 342,
      "^": 343,
      "³": 344,
      "£": 345,
      "è": 346,
      "à": 347,
      "Ћ": 348,
      "`": 349,
      "ν": 350,
      "§": 351,
      "í": 352,
      "ι": 353,
      "ś": 354,
      "ā": 355,
      "τ": 356,
      "―": 357,
      "�": 358,
      "̆": 359,
      "ε": 360,
      "ρ": 361,
      "‰": 362,
      "ς": 363,
      "Â": 364,
      "ē": 365,
      "˗": 366,
      "😂": 367,
      "": 368,
      "σ": 369,
      "️": 370,
      "½": 371,
      "": 372,
      "ç": 373,
      "λ": 374,
      "##о": 375,
      "##е": 376,
      "##а": 377,
      "##и": 378,
      "##н": 379,
      "##т": 380,
      "##с": 381,
      "##р": 382,
      "##л": 383,
      "##в": 384,
      "##к": 385,
      "##м": 386,
      "##д": 387,
      "##п": 388,
      "##у": 389,
      "##я": 390,
      "##ы": 391,
      "##,": 392,
      "##г": 393,
      "##ь": 394,
      "##б": 395,
      "##з": 396,
      "##.": 397,
      "##ч": 398,
      "##й": 399,
      "##ж": 400,
      "##х": 401,
      "##ш": 402,
      "##ю": 403,
      "##-": 404,
      "##ц": 405,
      "##щ": 406,
      "##э": 407,
      "##С": 408,
      "##В": 409,
      "##ф": 410,
      "##П": 411,
      "##1": 412,
      "##К": 413,
      "##Н": 414,
      "##0": 415,
      "##А": 416,
      "##О": 417,
      "##М": 418,
      "##Р": 419,
      "##2": 420,
      "##»": 421,
      "##«": 422,
      "##\"": 423,
      "##Д": 424,
      "##Т": 425,
      "##И": 426,
      "##e": 427,
      "##Б": 428,
      "##)": 429,
      "##9": 430,
      "##(": 431,
      "##?": 432,
      "##:": 433,
      "##Г": 434,
      "##a": 435,
      "##o": 436,
      "##ё": 437,
      "##5": 438,
      "##3": 439,
      "##r": 440,
      "##i": 441,
      "##4": 442,
      "##t": 443,
      "##У": 444,
      "##Л": 445,
      "##n": 446,
      "##Е": 447,
      "##!": 448,
      "##8": 449,
      "##—": 450,
      "##6": 451,
      "##Ф": 452,
      "##7": 453,
      "##s": 454,
      "##З": 455,
      "##Э": 456,
      "##Я": 457,
      "##l": 458,
      "##u": 459,
      "##Ч": 460,
      "##Х": 461,
      "##Ш": 462,
      "##ъ": 463,
      "##d": 464,
      "##…": 465,
      "##h": 466,
      "##c": 467,
      "##/": 468,
      "##m": 469,
      "##;": 470,
      "##I": 471,
      "##p": 472,
      "##S": 473,
      "##g": 474,
      "##–": 475,
      "##і": 476,
      "##A": 477,
      "##y": 478,
      "##Ц": 479,
      "##T": 480,
      "##%": 481,
      "##Ж": 482,
      "##b": 483,
      "##f": 484,
      "##C": 485,
      "##k": 486,
      "##R": 487,
      "##w": 488,
      "##M": 489,
      "##E": 490,
      "##Ю": 491,
      "##N": 492,
      "##P": 493,
      "##v": 494,
      "##B": 495,
      "##D": 496,
      "##F": 497,
      "##X": 498,
      "##W": 499,
      "##G": 500,
      "##V": 501,
      "##L": 502,
      "##H": 503,
      "##_": 504,
      "##O": 505,
      "##Đ": 506,
      "##́": 507,
      "##U": 508,
      "##&": 509,
      "##x": 510,
      "##]": 511,
      "##[": 512,
      "##=": 513,
      "##Й": 514,
      "##z": 515,
      "##'": 516,
      "##K": 517,
      "##q": 518,
      "##№": 519,
      "##“": 520,
      "##+": 521,
      "##$": 522,
      "##ї": 523,
      "##J": 524,
      "##>": 525,
      "##°": 526,
      "##*": 527,
      "##Ń": 528,
      "##”": 529,
      "##Y": 530,
      "##­": 531,
      "##є": 532,
      "###": 533,
      "##j": 534,
      "##<": 535,
      "##„": 536,
      "##’": 537,
      "##ѕ": 538,
      "##Ы": 539,
      "##Ь": 540,
      "##@": 541,
      "##Z": 542,
      "##Щ": 543,
      "##µ": 544,
      "##|": 545,
      "##‚": 546,
      "##І": 547,
      "##Ѕ": 548,
      "##Q": 549,
      "##−": 550,
      "##Ђ": 551,
      "##ž": 552,
      "##Ѓ": 553,
      "##•": 554,
      "##": 555,
      "##²": 556,
      "##ľ": 557,
      "##→": 558,
      "##¸": 559,
      "##é": 560,
      "##˝": 561,
      "##": 562,
      "##ј": 563,
      "##©": 564,
      "##ў": 565,
      "##€": 566,
      "##ґ": 567,
      "##": 568,
      "##}": 569,
      "##{": 570,
      "##ѣ": 571,
      "##": 572,
      "##ť": 573,
      "##Ё": 574,
      "##·": 575,
      "##˛": 576,
      "##​": 577,
      "##ѓ": 578,
      "##\\": 579,
      "##‹": 580,
      "##Џ": 581,
      "##ş": 582,
      "##±": 583,
      "##ź": 584,
      "##´": 585,
      "##": 586,
      "##ż": 587,
      "##Њ": 588,
      "##": 589,
      "##~": 590,
      "##ü": 591,
      "##‡": 592,
      "##×": 593,
      "##‘": 594,
      "##ä": 595,
      "##": 596,
      "##ł": 597,
      "##á": 598,
      "##š": 599,
      "##α": 600,
      "##Ъ": 601,
      "##̶": 602,
      "##Є": 603,
      "##": 604,
      "##ą": 605,
      "##": 606,
      "##†": 607,
      "##ο": 608,
      "##ˇ": 609,
      "##ó": 610,
      "##¶": 611,
      "##ö": 612,
      "##": 613,
      "##^": 614,
      "##³": 615,
      "##£": 616,
      "##è": 617,
      "##à": 618,
      "##Ћ": 619,
      "##`": 620,
      "##ν": 621,
      "##§": 622,
      "##í": 623,
      "##ι": 624,
      "##ś": 625,
      "##ā": 626,
      "##τ": 627,
      "##―": 628,
      "##�": 629,
      "##̆": 630,
      "##ε": 631,
      "##ρ": 632,
      "##‰": 633,
      "##ς": 634,
      "##Â": 635,
      "##ē": 636,
      "##˗": 637,
      "##😂": 638,
      "##": 639,
      "##σ": 640,
      "##️": 641,
      "##½": 642,
      "##": 643,
      "##ç": 644,
      "##λ": 645,
      "##то": 646,
      "##ен": 647,
      "##ст": 648,
      "##ра": 649,
      "##ко": 650,
      "##но": 651,
      "##ро": 652,
      "##го": 653,
      "по": 654,
      "##ре": 655,
      "##ли": 656,
      "##ка": 657,
      "##ни": 658,
      "##ет": 659,
      "на": 660,
      "##ва": 661,
      "##ла": 662,
      "##ри": 663,
      "##ль": 664,
      "##ло": 665,
      "##та": 666,
      "##ны": 667,
      "##за": 668,
      "##на": 669,
      "##те": 670,
      "##во": 671,
      "не": 672,
      "##ть": 673,
      "##ер": 674,
      "##да": 675,
      "##ки": 676,
      "##ся": 677,
      "##ле": 678,
      "##ени": 679,
      "##ти": 680,
      "за": 681,
      "ко": 682,
      "##ми": 683,
      "##ви": 684,
      "##ру": 685,
      "##ем": 686,
      "##ди": 687,
      "про": 688,
      "со": 689,
      "ра": 690,
      "##не": 691,
      "##де": 692,
      "что": 693,
      "##ля": 694,
      "го": 695,
      "то": 696,
      "##ци": 697,
      "##ма": 698,
      "##сь": 699,
      "от": 700,
      "##до": 701,
      "##ско": 702,
      "во": 703,
      "##же": 704,
      "##ве": 705,
      "##мо": 706,
      "бы": 707,
      "до": 708,
      "ка": 709,
      "##хо": 710,
      "при": 711,
      "##бо": 712,
      "##по": 713,
      "##си": 714,
      "##ста": 715,
      "##ча": 716,
      "##ну": 717,
      "##сти": 718,
      "##чи": 719,
      "##че": 720,
      "об": 721,
      "##се": 722,
      "##ры": 723,
      "##ду": 724,
      "вы": 725,
      "мо": 726,
      "##ски": 727,
      "##ши": 728,
      "##сто": 729,
      "##ей": 730,
      "##лу": 731,
      "##жи": 732,
      "##ку": 733,
      "из": 734,
      "##ной": 735,
      "это": 736,
      "та": 737,
      "пре": 738,
      "##па": 739,
      "##ме": 740,
      "##га": 741,
      "##ере": 742,
      "##со": 743,
      "ре": 744,
      "те": 745,
      "##ения": 746,
      "##ного": 747,
      "##ных": 748,
      "##тель": 749,
      "но": 750,
      "##ги": 751,
      "##вы": 752,
      "##сть": 753,
      "##са": 754,
      "##щи": 755,
      "##ше": 756,
      "##му": 757,
      "##ня": 758,
      "##ря": 759,
      "##ный": 760,
      "##жа": 761,
      "##пи": 762,
      "По": 763,
      "##лю": 764,
      "бо": 765,
      "##ще": 766,
      "##ные": 767,
      "раз": 768,
      "##ту": 769,
      "##мен": 770,
      "под": 771,
      "##ение": 772,
      "##ств": 773,
      "ма": 774,
      "кото": 775,
      "ни": 776,
      "##лся": 777,
      "##ты": 778,
      "##ют": 779,
      "все": 780,
      "##зи": 781,
      "##вер": 782,
      "##би": 783,
      "де": 784,
      "как": 785,
      "##зо": 786,
      "##ется": 787,
      "ме": 788,
      "да": 789,
      "##лен": 790,
      "ста": 791,
      "сво": 792,
      "##сси": 793,
      "се": 794,
      "он": 795,
      "##пе": 796,
      "ли": 797,
      "са": 798,
      "##об": 799,
      "##сле": 800,
      "##ции": 801,
      "##каза": 802,
      "##ство": 803,
      "##це": 804,
      "ми": 805,
      "его": 806,
      "пере": 807,
      "##ар": 808,
      "##ке": 809,
      "##бы": 810,
      "ст": 811,
      "##ша": 812,
      "##ров": 813,
      "##бе": 814,
      "##ным": 815,
      "##ться": 816,
      "бу": 817,
      "так": 818,
      "хо": 819,
      "##ды": 820,
      "ве": 821,
      "##ской": 822,
      "##нов": 823,
      "На": 824,
      "##ния": 825,
      "##жно": 826,
      "си": 827,
      "##гда": 828,
      "##су": 829,
      "20": 830,
      "##ба": 831,
      "##ков": 832,
      "##он": 833,
      "же": 834,
      "##лько": 835,
      "##вет": 836,
      "рас": 837,
      "бе": 838,
      "##мы": 839,
      "##рова": 840,
      "##ска": 841,
      "##пу": 842,
      "##ского": 843,
      "##ная": 844,
      "##ное": 845,
      "##ор": 846,
      "пред": 847,
      "##про": 848,
      "для": 849,
      "Ро": 850,
      "##ща": 851,
      "##ран": 852,
      "##ак": 853,
      "##ствен": 854,
      "19": 855,
      "ру": 856,
      "ро": 857,
      "##лы": 858,
      "##ень": 859,
      "##кой": 860,
      "##гу": 861,
      "которы": 862,
      "##ние": 863,
      "##лет": 864,
      "##дет": 865,
      "сто": 866,
      "##лись": 867,
      "##зы": 868,
      "##жен": 869,
      "##ном": 870,
      "##ха": 871,
      "су": 872,
      "##ца": 873,
      "кон": 874,
      "##спо": 875,
      "##кра": 876,
      "##ства": 877,
      "года": 878,
      "##рав": 879,
      "ин": 880,
      "ви": 881,
      "##лась": 882,
      "##тов": 883,
      "##гра": 884,
      "##ву": 885,
      "##лось": 886,
      "воз": 887,
      "##ан": 888,
      "##ский": 889,
      "##мя": 890,
      "##тся": 891,
      "Но": 892,
      "##ему": 893,
      "##ходи": 894,
      "па": 895,
      "##сли": 896,
      "##ден": 897,
      "че": 898,
      "жи": 899,
      "ва": 900,
      "вре": 901,
      "од": 902,
      "дру": 903,
      "было": 904,
      "был": 905,
      "##бу": 906,
      "##тив": 907,
      "##вать": 908,
      "##зу": 909,
      "зна": 910,
      "##сту": 911,
      "##ром": 912,
      "##ности": 913,
      "##став": 914,
      "##фи": 915,
      "лю": 916,
      "##ских": 917,
      "##ную": 918,
      "Росси": 919,
      "##ком": 920,
      "ча": 921,
      "##аль": 922,
      "##тя": 923,
      "##нима": 924,
      "пра": 925,
      "##она": 926,
      "##вой": 927,
      "##ющи": 928,
      "##мер": 929,
      "##том": 930,
      "##шь": 931,
      "##ск": 932,
      "Ко": 933,
      "после": 934,
      "ком": 935,
      "##зна": 936,
      "##лей": 937,
      "боль": 938,
      "##нии": 939,
      "дол": 940,
      "##жет": 941,
      "##чно": 942,
      "Во": 943,
      "пер": 944,
      "мы": 945,
      "##вши": 946,
      "ты": 947,
      "##цен": 948,
      "##стви": 949,
      "слу": 950,
      "рабо": 951,
      "##дь": 952,
      "##дер": 953,
      "##ении": 954,
      "мен": 955,
      "201": 956,
      "##лове": 957,
      "Ка": 958,
      "##ность": 959,
      "она": 960,
      "##вя": 961,
      "ку": 962,
      "Мо": 963,
      "сло": 964,
      "уже": 965,
      "только": 966,
      "или": 967,
      "гла": 968,
      "Не": 969,
      "##ин": 970,
      "##стоя": 971,
      "их": 972,
      "##дя": 973,
      "##сы": 974,
      "сооб": 975,
      "За": 976,
      "##ция": 977,
      "##ник": 978,
      "году": 979,
      "стра": 980,
      "полу": 981,
      "пу": 982,
      "##вал": 983,
      "прои": 984,
      "##мет": 985,
      "##дин": 986,
      "ле": 987,
      "##сте": 988,
      "##ления": 989,
      "##пре": 990,
      "они": 991,
      "##рой": 992,
      "##бя": 993,
      "##гла": 994,
      "ту": 995,
      "##ман": 996,
      "челове": 997,
      "##лек": 998,
      "##пы": 999,
      "сказа": 1000,
      "Со": 1001,
      "##чен": 1002,
      "ее": 1003,
      "##пер": 1004,
      "##ев": 1005,
      "му": 1006,
      "##род": 1007,
      "##кры": 1008,
      "чем": 1009,
      "##вори": 1010,
      "##тра": 1011,
      "время": 1012,
      "Ма": 1013,
      "##стави": 1014,
      "чтобы": 1015,
      "обра": 1016,
      "##жда": 1017,
      "##ными": 1018,
      "этом": 1019,
      "будет": 1020,
      "##рен": 1021,
      "##ские": 1022,
      "пи": 1023,
      "меня": 1024,
      "еще": 1025,
      "Он": 1026,
      "ос": 1027,
      "само": 1028,
      "ди": 1029,
      "##рии": 1030,
      "фи": 1031,
      "##ника": 1032,
      "вз": 1033,
      "##ек": 1034,
      "##ству": 1035,
      "нача": 1036,
      "Ра": 1037,
      "##стра": 1038,
      "##стре": 1039,
      "когда": 1040,
      "Да": 1041,
      "##ней": 1042,
      "Это": 1043,
      "##при": 1044,
      "ав": 1045,
      "были": 1046,
      "пла": 1047,
      "##цы": 1048,
      "лет": 1049,
      "##лее": 1050,
      "##ются": 1051,
      "##прав": 1052,
      "##дар": 1053,
      "##тельно": 1054,
      "##вали": 1055,
      "##нее": 1056,
      "##тор": 1057,
      "##мот": 1058,
      "##лов": 1059,
      "России": 1060,
      "ду": 1061,
      "##ге": 1062,
      "##тер": 1063,
      "##бли": 1064,
      "##дела": 1065,
      "##вля": 1066,
      "оста": 1067,
      "##ред": 1068,
      "##спе": 1069,
      "##нь": 1070,
      "##яви": 1071,
      "##руп": 1072,
      "была": 1073,
      "##ний": 1074,
      "##ская": 1075,
      "свои": 1076,
      "##стро": 1077,
      "ис": 1078,
      "может": 1079,
      "также": 1080,
      "если": 1081,
      "##вая": 1082,
      "ба": 1083,
      "вер": 1084,
      "##жу": 1085,
      "##тиче": 1086,
      "сле": 1087,
      "##дом": 1088,
      "##ений": 1089,
      "эти": 1090,
      "##нд": 1091,
      "##ению": 1092,
      "того": 1093,
      "чи": 1094,
      "оч": 1095,
      "##шен": 1096,
      "##ление": 1097,
      "мне": 1098,
      "##00": 1099,
      "пол": 1100,
      "##рга": 1101,
      "##льно": 1102,
      "То": 1103,
      "вс": 1104,
      "##нова": 1105,
      "Бо": 1106,
      "##кон": 1107,
      "##хи": 1108,
      "том": 1109,
      "##мени": 1110,
      "##ском": 1111,
      "##фор": 1112,
      "##жду": 1113,
      "есть": 1114,
      "которые": 1115,
      "##вых": 1116,
      "При": 1117,
      "тре": 1118,
      "##er": 1119,
      "поли": 1120,
      "##дов": 1121,
      "Укра": 1122,
      "##шо": 1123,
      "##вые": 1124,
      "##три": 1125,
      "пе": 1126,
      "##вает": 1127,
      "##зова": 1128,
      "спо": 1129,
      "объ": 1130,
      "##ез": 1131,
      "гра": 1132,
      "##ета": 1133,
      "Ми": 1134,
      "##рь": 1135,
      "##сла": 1136,
      "##пра": 1137,
      "кра": 1138,
      "##сс": 1139,
      "##нул": 1140,
      "##жд": 1141,
      "##зво": 1142,
      "##дова": 1143,
      "голо": 1144,
      "##бря": 1145,
      "##цию": 1146,
      "##вый": 1147,
      "который": 1148,
      "##пол": 1149,
      "##ят": 1150,
      "без": 1151,
      "поч": 1152,
      "где": 1153,
      "пар": 1154,
      "говори": 1155,
      "Та": 1156,
      "ок": 1157,
      "##дно": 1158,
      "##тому": 1159,
      "##вно": 1160,
      "цен": 1161,
      "##рта": 1162,
      "Украи": 1163,
      "этого": 1164,
      "##чь": 1165,
      "Са": 1166,
      "##ением": 1167,
      "##ких": 1168,
      "обла": 1169,
      "##вед": 1170,
      "ак": 1171,
      "Ни": 1172,
      "уча": 1173,
      "##бра": 1174,
      "ну": 1175,
      "ки": 1176,
      "нет": 1177,
      "##сты": 1178,
      "очень": 1179,
      "даже": 1180,
      "##ил": 1181,
      "Как": 1182,
      "Го": 1183,
      "более": 1184,
      "##ников": 1185,
      "##кие": 1186,
      "##теля": 1187,
      "помо": 1188,
      "##вого": 1189,
      "испо": 1190,
      "##дей": 1191,
      "свя": 1192,
      "##кую": 1193,
      "##чита": 1194,
      "##кого": 1195,
      "дела": 1196,
      "##ете": 1197,
      "чу": 1198,
      "До": 1199,
      "##сов": 1200,
      "тем": 1201,
      "быть": 1202,
      "ар": 1203,
      "##тро": 1204,
      "им": 1205,
      "##вро": 1206,
      "сторо": 1207,
      "дей": 1208,
      "##лом": 1209,
      "тер": 1210,
      "ему": 1211,
      "##кан": 1212,
      "име": 1213,
      "Ва": 1214,
      "орга": 1215,
      "##цо": 1216,
      "##сно": 1217,
      "обо": 1218,
      "буду": 1219,
      "##циаль": 1220,
      "##чу": 1221,
      "18": 1222,
      "други": 1223,
      "вой": 1224,
      "##гля": 1225,
      "нас": 1226,
      "##ники": 1227,
      "##ене": 1228,
      "##телей": 1229,
      "авто": 1230,
      "себя": 1231,
      "можно": 1232,
      "жиз": 1233,
      "##тия": 1234,
      "Про": 1235,
      "##час": 1236,
      "пос": 1237,
      "##зда": 1238,
      "сказал": 1239,
      "##ью": 1240,
      "200": 1241,
      "це": 1242,
      "##логи": 1243,
      "##ставля": 1244,
      "##ена": 1245,
      "##рт": 1246,
      "росси": 1247,
      "га": 1248,
      "##кто": 1249,
      "Вы": 1250,
      "##цу": 1251,
      "##зыва": 1252,
      "##судар": 1253,
      "##шей": 1254,
      "##ейчас": 1255,
      "исто": 1256,
      "ско": 1257,
      "подо": 1258,
      "##лли": 1259,
      "дан": 1260,
      "##клю": 1261,
      "##цион": 1262,
      "него": 1263,
      "получи": 1264,
      "##сло": 1265,
      "человек": 1266,
      "эк": 1267,
      "##соб": 1268,
      "##стве": 1269,
      "горо": 1270,
      "жен": 1271,
      "отно": 1272,
      "##можно": 1273,
      "##шу": 1274,
      "##шел": 1275,
      "сдела": 1276,
      "##его": 1277,
      "##шего": 1278,
      "##жения": 1279,
      "Ки": 1280,
      "пока": 1281,
      "Па": 1282,
      "вла": 1283,
      "##жение": 1284,
      "##тели": 1285,
      "коман": 1286,
      "неско": 1287,
      "##води": 1288,
      "между": 1289,
      "слова": 1290,
      "тех": 1291,
      "Так": 1292,
      "просто": 1293,
      "##вест": 1294,
      "##писа": 1295,
      "прави": 1296,
      "##нако": 1297,
      "случа": 1298,
      "##ках": 1299,
      "##дол": 1300,
      "##ит": 1301,
      "расс": 1302,
      "них": 1303,
      "##in": 1304,
      "##нови": 1305,
      "##ками": 1306,
      "##гово": 1307,
      "там": 1308,
      "кто": 1309,
      "работа": 1310,
      "##зиден": 1311,
      "##бой": 1312,
      "##ским": 1313,
      "##тери": 1314,
      "лу": 1315,
      "Ве": 1316,
      "поло": 1317,
      "##фе": 1318,
      "##дел": 1319,
      "вопро": 1320,
      "##an": 1321,
      "##тно": 1322,
      "##тере": 1323,
      "ла": 1324,
      "##ерез": 1325,
      "##чего": 1326,
      "##шения": 1327,
      "сообща": 1328,
      "##коно": 1329,
      "рай": 1330,
      "сов": 1331,
      "##нг": 1332,
      "##рая": 1333,
      "ответ": 1334,
      "##ван": 1335,
      "день": 1336,
      "##енно": 1337,
      "##емы": 1338,
      "##ступ": 1339,
      "государ": 1340,
      "которо": 1341,
      "##ким": 1342,
      "Си": 1343,
      "больше": 1344,
      "##зя": 1345,
      "##менно": 1346,
      "Ку": 1347,
      "##нк": 1348,
      "много": 1349,
      "##реди": 1350,
      "россий": 1351,
      "##цев": 1352,
      "Все": 1353,
      "один": 1354,
      "10": 1355,
      "явля": 1356,
      "Что": 1357,
      "спе": 1358,
      "##пера": 1359,
      "##кла": 1360,
      "##дня": 1361,
      "##ское": 1362,
      "два": 1363,
      "ло": 1364,
      "##зе": 1365,
      "##бор": 1366,
      "##дели": 1367,
      "##пла": 1368,
      "##шение": 1369,
      "##кое": 1370,
      "##кий": 1371,
      "Если": 1372,
      "этот": 1373,
      "уда": 1374,
      "груп": 1375,
      "##ён": 1376,
      "##льта": 1377,
      "Об": 1378,
      "сер": 1379,
      "##ья": 1380,
      "Мы": 1381,
      "каж": 1382,
      "##держа": 1383,
      "против": 1384,
      "могу": 1385,
      "##али": 1386,
      "##нет": 1387,
      "послед": 1388,
      "##ять": 1389,
      "##яс": 1390,
      "дет": 1391,
      "##емо": 1392,
      "##сса": 1393,
      "##йте": 1394,
      "пло": 1395,
      "заяви": 1396,
      "созда": 1397,
      "Ба": 1398,
      "иг": 1399,
      "##on": 1400,
      "##мери": 1401,
      "##вод": 1402,
      "Алек": 1403,
      "##ут": 1404,
      "##вым": 1405,
      "##кая": 1406,
      "##перь": 1407,
      "органи": 1408,
      "##вое": 1409,
      "компа": 1410,
      "##ним": 1411,
      "##щен": 1412,
      "##стя": 1413,
      "##бира": 1414,
      "над": 1415,
      "##мента": 1416,
      "Хо": 1417,
      "вот": 1418,
      "##ША": 1419,
      "##ших": 1420,
      "##рия": 1421,
      "встре": 1422,
      "чет": 1423,
      "действи": 1424,
      "Она": 1425,
      "США": 1426,
      "##щей": 1427,
      "##пас": 1428,
      "Ви": 1429,
      "Ли": 1430,
      "##рон": 1431,
      "##щего": 1432,
      "всего": 1433,
      "всех": 1434,
      "От": 1435,
      "##ряд": 1436,
      "##йти": 1437,
      "##льной": 1438,
      "Ме": 1439,
      "##ходя": 1440,
      "счита": 1441,
      "##торы": 1442,
      "ша": 1443,
      "тру": 1444,
      "##слу": 1445,
      "##тре": 1446,
      "друго": 1447,
      "приня": 1448,
      "хоро": 1449,
      "##чение": 1450,
      "##оне": 1451,
      "##чения": 1452,
      "Ну": 1453,
      "##лага": 1454,
      "вос": 1455,
      "несколько": 1456,
      "##десь": 1457,
      "через": 1458,
      "##or": 1459,
      "сейчас": 1460,
      "би": 1461,
      "Ре": 1462,
      "три": 1463,
      "##тан": 1464,
      "##форма": 1465,
      "Бе": 1466,
      "##чет": 1467,
      "##нут": 1468,
      "##мотре": 1469,
      "15": 1470,
      "обе": 1471,
      "откры": 1472,
      "##кре": 1473,
      "ти": 1474,
      "##вра": 1475,
      "##яв": 1476,
      "##мент": 1477,
      "##зульта": 1478,
      "Моск": 1479,
      "##льного": 1480,
      "президен": 1481,
      "##ций": 1482,
      "мог": 1483,
      "##лем": 1484,
      "Пу": 1485,
      "##руг": 1486,
      "руб": 1487,
      "##лаго": 1488,
      "##тру": 1489,
      "продол": 1490,
      "исполь": 1491,
      "##лн": 1492,
      "доро": 1493,
      "себе": 1494,
      "##стер": 1495,
      "##рован": 1496,
      "##en": 1497,
      "дву": 1498,
      "##ешь": 1499,
      "##рак": 1500,
      "возможно": 1501,
      "Од": 1502,
      "этой": 1503,
      "##вом": 1504,
      "##нию": 1505,
      "##тин": 1506,
      "кор": 1507,
      "Те": 1508,
      "##нес": 1509,
      "соб": 1510,
      "Ин": 1511,
      "согла": 1512,
      "##чем": 1513,
      "фор": 1514,
      "ию": 1515,
      "##от": 1516,
      "##шли": 1517,
      "результа": 1518,
      "##ющий": 1519,
      "мини": 1520,
      "гу": 1521,
      "##льный": 1522,
      "##нец": 1523,
      "##вала": 1524,
      "луч": 1525,
      "##ющих": 1526,
      "находи": 1527,
      "##мина": 1528,
      "Пет": 1529,
      "поня": 1530,
      "##вший": 1531,
      "вме": 1532,
      "##скую": 1533,
      "##рий": 1534,
      "##тен": 1535,
      "долж": 1536,
      "Га": 1537,
      "##лин": 1538,
      "##прави": 1539,
      "стро": 1540,
      "##ход": 1541,
      "##бер": 1542,
      "##станов": 1543,
      "сем": 1544,
      "ры": 1545,
      "##вар": 1546,
      "##рей": 1547,
      "##рито": 1548,
      "сред": 1549,
      "представи": 1550,
      "области": 1551,
      "сообщи": 1552,
      "тоже": 1553,
      "высо": 1554,
      "##чина": 1555,
      "##стов": 1556,
      "##щу": 1557,
      "##ar": 1558,
      "своей": 1559,
      "##льных": 1560,
      "##ген": 1561,
      "теле": 1562,
      "состоя": 1563,
      "кар": 1564,
      "дви": 1565,
      "##нулся": 1566,
      "После": 1567,
      "переда": 1568,
      "кри": 1569,
      "##тября": 1570,
      "вто": 1571,
      "дума": 1572,
      "##той": 1573,
      "свою": 1574,
      "ад": 1575,
      "##ню": 1576,
      "самы": 1577,
      "глав": 1578,
      "стал": 1579,
      "сист": 1580,
      "##ступи": 1581,
      "перед": 1582,
      "сы": 1583,
      "##ссо": 1584,
      "##вания": 1585,
      "12": 1586,
      "##циона": 1587,
      "Евро": 1588,
      "##проси": 1589,
      "ничего": 1590,
      "##рабо": 1591,
      "##кономи": 1592,
      "##щее": 1593,
      "##нен": 1594,
      "надо": 1595,
      "Ар": 1596,
      "##шло": 1597,
      "##ниче": 1598,
      "оказа": 1599,
      "необ": 1600,
      "##лия": 1601,
      "##ходит": 1602,
      "Се": 1603,
      "Украины": 1604,
      "Из": 1605,
      "##коло": 1606,
      "укра": 1607,
      "зем": 1608,
      "наз": 1609,
      "##нем": 1610,
      "побе": 1611,
      "нем": 1612,
      "место": 1613,
      "##ети": 1614,
      "воен": 1615,
      "извест": 1616,
      "##жал": 1617,
      "террито": 1618,
      "##he": 1619,
      "##вор": 1620,
      "будут": 1621,
      "##им": 1622,
      "которая": 1623,
      "##ному": 1624,
      "уби": 1625,
      "ше": 1626,
      "тыся": 1627,
      "Вла": 1628,
      "Ты": 1629,
      "##ровать": 1630,
      "##стей": 1631,
      "##ством": 1632,
      "смо": 1633,
      "##ющие": 1634,
      "##ружи": 1635,
      "##вести": 1636,
      "##шая": 1637,
      "совер": 1638,
      "следу": 1639,
      "здесь": 1640,
      "##вич": 1641,
      "##тем": 1642,
      "тут": 1643,
      "Ла": 1644,
      "моло": 1645,
      "коро": 1646,
      "##сом": 1647,
      "##дера": 1648,
      "тра": 1649,
      "##СС": 1650,
      "##туа": 1651,
      "##лез": 1652,
      "офи": 1653,
      "руко": 1654,
      "##чной": 1655,
      "##хва": 1656,
      "##нер": 1657,
      "##нием": 1658,
      "##es": 1659,
      "##стран": 1660,
      "##вели": 1661,
      "информа": 1662,
      "глаза": 1663,
      "##воз": 1664,
      "##ложи": 1665,
      "##твер": 1666,
      "##ностью": 1667,
      "бли": 1668,
      "##лан": 1669,
      "##ступа": 1670,
      "нам": 1671,
      "##al": 1672,
      "потом": 1673,
      "##at": 1674,
      "17": 1675,
      "##него": 1676,
      "суще": 1677,
      "##раз": 1678,
      "тебя": 1679,
      "##пло": 1680,
      "199": 1681,
      "##ссе": 1682,
      "##мой": 1683,
      "оче": 1684,
      "##тельства": 1685,
      "обще": 1686,
      "##пад": 1687,
      "эта": 1688,
      "заявил": 1689,
      "показа": 1690,
      "##публи": 1691,
      "Де": 1692,
      "##зации": 1693,
      "женщи": 1694,
      "##вета": 1695,
      "Они": 1696,
      "кла": 1697,
      "которых": 1698,
      "##нуть": 1699,
      "##роме": 1700,
      "Ру": 1701,
      "##мерикан": 1702,
      "кре": 1703,
      "реши": 1704,
      "Су": 1705,
      "мно": 1706,
      "лишь": 1707,
      "##пусти": 1708,
      "Ан": 1709,
      "пы": 1710,
      "##ях": 1711,
      "муж": 1712,
      "##бле": 1713,
      "спи": 1714,
      "дело": 1715,
      "##льные": 1716,
      "##грам": 1717,
      "экономи": 1718,
      "##следова": 1719,
      "##дой": 1720,
      "вас": 1721,
      "служ": 1722,
      "##них": 1723,
      "неко": 1724,
      "##тий": 1725,
      "интере": 1726,
      "##чки": 1727,
      "ней": 1728,
      "##зом": 1729,
      "##нечно": 1730,
      "##ян": 1731,
      "понима": 1732,
      "является": 1733,
      "теперь": 1734,
      "реги": 1735,
      "##шки": 1736,
      "##нали": 1737,
      "бра": 1738,
      "##шла": 1739,
      "##труд": 1740,
      "11": 1741,
      "жизни": 1742,
      "##чных": 1743,
      "##вают": 1744,
      "призна": 1745,
      "людей": 1746,
      "потому": 1747,
      "год": 1748,
      "##хра": 1749,
      "мат": 1750,
      "бан": 1751,
      "##ческой": 1752,
      "РФ": 1753,
      "##зан": 1754,
      "Ле": 1755,
      "##лено": 1756,
      "прав": 1757,
      "позво": 1758,
      "разви": 1759,
      "Сер": 1760,
      "##гов": 1761,
      "сообщает": 1762,
      "2015": 1763,
      "##бро": 1764,
      "сам": 1765,
      "##сков": 1766,
      "Пер": 1767,
      "Бу": 1768,
      "##вание": 1769,
      "чер": 1770,
      "чемпи": 1771,
      "Лу": 1772,
      "сего": 1773,
      "сра": 1774,
      "Ста": 1775,
      "##тки": 1776,
      "##меча": 1777,
      "тот": 1778,
      "произво": 1779,
      "##шка": 1780,
      "##зд": 1781,
      "распо": 1782,
      "##мни": 1783,
      "ей": 1784,
      "##нула": 1785,
      "##стью": 1786,
      "##щения": 1787,
      "хотя": 1788,
      "дома": 1789,
      "благо": 1790,
      "##фо": 1791,
      "16": 1792,
      "##жида": 1793,
      "##жден": 1794,
      "##щая": 1795,
      "Пре": 1796,
      "тя": 1797,
      "ха": 1798,
      "##фа": 1799,
      "матери": 1800,
      "нау": 1801,
      "гру": 1802,
      "которой": 1803,
      "города": 1804,
      "##вается": 1805,
      "сегодня": 1806,
      "вам": 1807,
      "успе": 1808,
      "##ждения": 1809,
      "тор": 1810,
      "##дума": 1811,
      "##ено": 1812,
      "##тии": 1813,
      "##ственно": 1814,
      "Алекса": 1815,
      "отмет": 1816,
      "Вот": 1817,
      "право": 1818,
      "##чер": 1819,
      "##ваться": 1820,
      "маши": 1821,
      "##еха": 1822,
      "ним": 1823,
      "##рд": 1824,
      "ска": 1825,
      "##дца": 1826,
      "вра": 1827,
      "оп": 1828,
      "##ье": 1829,
      "вне": 1830,
      "уни": 1831,
      "##вин": 1832,
      "около": 1833,
      "##вших": 1834,
      "занима": 1835,
      "ог": 1836,
      "ря": 1837,
      "##шие": 1838,
      "##этому": 1839,
      "кол": 1840,
      "своих": 1841,
      "##рук": 1842,
      "##дель": 1843,
      "проек": 1844,
      "обы": 1845,
      "##ший": 1846,
      "человека": 1847,
      "такой": 1848,
      "##it": 1849,
      "##вари": 1850,
      "ника": 1851,
      "двух": 1852,
      "могут": 1853,
      "фа": 1854,
      "##хов": 1855,
      "необходи": 1856,
      "мест": 1857,
      "Александ": 1858,
      "Мар": 1859,
      "##ёт": 1860,
      "почти": 1861,
      "дере": 1862,
      "чего": 1863,
      "рус": 1864,
      "Влади": 1865,
      "времени": 1866,
      "##вую": 1867,
      "поль": 1868,
      "сен": 1869,
      "город": 1870,
      "##ган": 1871,
      "игра": 1872,
      "значи": 1873,
      "##ческих": 1874,
      "пов": 1875,
      "##кт": 1876,
      "Однако": 1877,
      "милли": 1878,
      "управ": 1879,
      "ситуа": 1880,
      "опре": 1881,
      "тогда": 1882,
      "бро": 1883,
      "гражда": 1884,
      "нужно": 1885,
      "пря": 1886,
      "настоя": 1887,
      "##лены": 1888,
      "жу": 1889,
      "украин": 1890,
      "##рую": 1891,
      "уго": 1892,
      "проис": 1893,
      "##кло": 1894,
      "2014": 1895,
      "фо": 1896,
      "сотруд": 1897,
      "фина": 1898,
      "ули": 1899,
      "194": 1900,
      "##сит": 1901,
      "##om": 1902,
      "##чный": 1903,
      "##ём": 1904,
      "тебе": 1905,
      "защи": 1906,
      "американ": 1907,
      "##сем": 1908,
      "страны": 1909,
      "14": 1910,
      "насе": 1911,
      "##ерт": 1912,
      "30": 1913,
      "##чные": 1914,
      "##стан": 1915,
      "стороны": 1916,
      "##ктор": 1917,
      "##дить": 1918,
      "##ru": 1919,
      "##ху": 1920,
      "##ток": 1921,
      "именно": 1922,
      "словам": 1923,
      "##седа": 1924,
      "стре": 1925,
      "зо": 1926,
      "##ственной": 1927,
      "всегда": 1928,
      "чув": 1929,
      "свой": 1930,
      "##ясни": 1931,
      "шко": 1932,
      "##мини": 1933,
      "опера": 1934,
      "спа": 1935,
      "##тора": 1936,
      "Ново": 1937,
      "ри": 1938,
      "##личе": 1939,
      "тран": 1940,
      "##тить": 1941,
      "своего": 1942,
      "##держи": 1943,
      "комп": 1944,
      "Фе": 1945,
      "фак": 1946,
      "случае": 1947,
      "##тур": 1948,
      "Дж": 1949,
      "люди": 1950,
      "##бур": 1951,
      "глу": 1952,
      "13": 1953,
      "##вшись": 1954,
      "##из": 1955,
      "Кон": 1956,
      "Когда": 1957,
      "##туры": 1958,
      "её": 1959,
      "##мии": 1960,
      "других": 1961,
      "ху": 1962,
      "основ": 1963,
      "##обра": 1964,
      "##ответ": 1965,
      "##прия": 1966,
      "даль": 1967,
      "жа": 1968,
      "части": 1969,
      "стран": 1970,
      "##щение": 1971,
      "##рах": 1972,
      "взгля": 1973,
      "участи": 1974,
      "##рю": 1975,
      "направ": 1976,
      "##мов": 1977,
      "уви": 1978,
      "##шим": 1979,
      "##обще": 1980,
      "которого": 1981,
      "смер": 1982,
      "##вле": 1983,
      "##ема": 1984,
      "Ту": 1985,
      "##чка": 1986,
      "ци": 1987,
      "##щих": 1988,
      "##блю": 1989,
      "##тил": 1990,
      "совет": 1991,
      "##вался": 1992,
      "уров": 1993,
      "недо": 1994,
      "произо": 1995,
      "пода": 1996,
      "##вери": 1997,
      "участ": 1998,
      "ши": 1999,
      "Ди": 2000,
      "##рави": 2001,
      "##сут": 2002,
      "сту": 2003,
      "нико": 2004,
      "##щё": 2005,
      "##щем": 2006,
      "##кова": 2007,
      "##ческого": 2008,
      "Нет": 2009,
      "меся": 2010,
      "бое": 2011,
      "##виа": 2012,
      "##гре": 2013,
      "##ствия": 2014,
      "вся": 2015,
      "спроси": 2016,
      "Владими": 2017,
      "язы": 2018,
      "мира": 2019,
      "Му": 2020,
      "##тие": 2021,
      "нее": 2022,
      "пор": 2023,
      "##щий": 2024,
      "##воря": 2025,
      "буд": 2026,
      "##le": 2027,
      "ги": 2028,
      "25": 2029,
      "коми": 2030,
      "каче": 2031,
      "##ствие": 2032,
      "помощ": 2033,
      "##юсь": 2034,
      "хоте": 2035,
      "ан": 2036,
      "стать": 2037,
      "отли": 2038,
      "попа": 2039,
      "##будь": 2040,
      "деся": 2041,
      "##re": 2042,
      "доста": 2043,
      "##ложен": 2044,
      "##народ": 2045,
      "нео": 2046,
      "##цией": 2047,
      "экс": 2048,
      "програм": 2049,
      "##рио": 2050,
      "##рок": 2051,
      "##нами": 2052,
      "вместе": 2053,
      "ино": 2054,
      "##скому": 2055,
      "##чного": 2056,
      "внима": 2057,
      "уг": 2058,
      "##кам": 2059,
      "Ха": 2060,
      "##лий": 2061,
      "кни": 2062,
      "##слови": 2063,
      "клу": 2064,
      "одно": 2065,
      "жизнь": 2066,
      "проце": 2067,
      "рублей": 2068,
      "этих": 2069,
      "Фран": 2070,
      "##st": 2071,
      "пыта": 2072,
      "всё": 2073,
      "прода": 2074,
      "ян": 2075,
      "##смот": 2076,
      "должно": 2077,
      "##ic": 2078,
      "##жать": 2079,
      "виде": 2080,
      "должен": 2081,
      "##чить": 2082,
      "дер": 2083,
      "замет": 2084,
      "##бре": 2085,
      "##ствует": 2086,
      "##нача": 2087,
      "##тиво": 2088,
      "##тельство": 2089,
      "многи": 2090,
      "Кра": 2091,
      "безо": 2092,
      "обя": 2093,
      "должны": 2094,
      "пробле": 2095,
      "##чил": 2096,
      "##утбо": 2097,
      "неза": 2098,
      "ге": 2099,
      "какой": 2100,
      "иск": 2101,
      "любо": 2102,
      "нибудь": 2103,
      "##ница": 2104,
      "момент": 2105,
      "##скими": 2106,
      "прекра": 2107,
      "ведь": 2108,
      "##лыша": 2109,
      "##енера": 2110,
      "соответ": 2111,
      "жур": 2112,
      "##кро": 2113,
      "роди": 2114,
      "##пита": 2115,
      "##вшего": 2116,
      "##ot": 2117,
      "##лена": 2118,
      "способ": 2119,
      "##вшие": 2120,
      "сразу": 2121,
      "##деть": 2122,
      "тысяч": 2123,
      "зада": 2124,
      "большо": 2125,
      "вели": 2126,
      "##тами": 2127,
      "##нах": 2128,
      "четы": 2129,
      "рассказа": 2130,
      "нару": 2131,
      "##имо": 2132,
      "##ору": 2133,
      "часть": 2134,
      "закон": 2135,
      "вопрос": 2136,
      "Россия": 2137,
      "##еры": 2138,
      "##лении": 2139,
      "дея": 2140,
      "собой": 2141,
      "мн": 2142,
      "круп": 2143,
      "одной": 2144,
      "##дви": 2145,
      "сте": 2146,
      "Ду": 2147,
      "заня": 2148,
      "мене": 2149,
      "##ясь": 2150,
      "предпо": 2151,
      "наде": 2152,
      "##пример": 2153,
      "##тера": 2154,
      "##ске": 2155,
      "##шин": 2156,
      "##кси": 2157,
      "##пута": 2158,
      "Для": 2159,
      "лег": 2160,
      "##того": 2161,
      "интер": 2162,
      "мар": 2163,
      "непо": 2164,
      "Его": 2165,
      "евро": 2166,
      "вообще": 2167,
      "сла": 2168,
      "произ": 2169,
      "##онов": 2170,
      "конце": 2171,
      "преж": 2172,
      "янва": 2173,
      "свет": 2174,
      "собствен": 2175,
      "##министра": 2176,
      "Нико": 2177,
      "Лю": 2178,
      "##моби": 2179,
      "почему": 2180,
      "чемпиона": 2181,
      "снова": 2182,
      "филь": 2183,
      "хорошо": 2184,
      "компании": 2185,
      "выра": 2186,
      "##спубли": 2187,
      "либо": 2188,
      "##дии": 2189,
      "сви": 2190,
      "##воль": 2191,
      "уч": 2192,
      "Гер": 2193,
      "##дут": 2194,
      "##нитель": 2195,
      "окру": 2196,
      "ещё": 2197,
      "похо": 2198,
      "Анд": 2199,
      "##вел": 2200,
      "строи": 2201,
      "ради": 2202,
      "##ены": 2203,
      "вклю": 2204,
      "Че": 2205,
      "данным": 2206,
      "##чал": 2207,
      "футбо": 2208,
      "территории": 2209,
      "##фф": 2210,
      "составля": 2211,
      "##пере": 2212,
      "##чей": 2213,
      "##рию": 2214,
      "пле": 2215,
      "мя": 2216,
      "##жды": 2217,
      "работы": 2218,
      "Гла": 2219,
      "появи": 2220,
      "образом": 2221,
      "фев": 2222,
      "всем": 2223,
      "однако": 2224,
      "##зад": 2225,
      "некоторы": 2226,
      "##кти": 2227,
      "полити": 2228,
      "жела": 2229,
      "##шее": 2230,
      "##рев": 2231,
      "сбор": 2232,
      "сме": 2233,
      "гор": 2234,
      "одного": 2235,
      "##кс": 2236,
      "ус": 2237,
      "осо": 2238,
      "##дра": 2239,
      "войны": 2240,
      "эту": 2241,
      "##ницы": 2242,
      "свобо": 2243,
      "##ремен": 2244,
      "власти": 2245,
      "февра": 2246,
      "обна": 2247,
      "##лии": 2248,
      "Ло": 2249,
      "авгу": 2250,
      "##строй": 2251,
      "весь": 2252,
      "##рует": 2253,
      "услови": 2254,
      "##ститу": 2255,
      "выбо": 2256,
      "ново": 2257,
      "выпол": 2258,
      "другой": 2259,
      "сли": 2260,
      "##лки": 2261,
      "пресс": 2262,
      "##ou": 2263,
      "##шую": 2264,
      "##графи": 2265,
      "заклю": 2266,
      "##бави": 2267,
      "кру": 2268,
      "##ссии": 2269,
      "стало": 2270,
      "назад": 2271,
      "##ведения": 2272,
      "Под": 2273,
      "конечно": 2274,
      "мет": 2275,
      "##един": 2276,
      "##тый": 2277,
      "##бри": 2278,
      "##шем": 2279,
      "##мом": 2280,
      "##ёл": 2281,
      "никогда": 2282,
      "##цей": 2283,
      "числе": 2284,
      "гото": 2285,
      "восто": 2286,
      "##тай": 2287,
      "особ": 2288,
      "знаю": 2289,
      "уста": 2290,
      "места": 2291,
      "198": 2292,
      "связи": 2293,
      "##тически": 2294,
      "##что": 2295,
      "##лик": 2296,
      "##тон": 2297,
      "##рами": 2298,
      "##шении": 2299,
      "част": 2300,
      "элек": 2301,
      "##тных": 2302,
      "взя": 2303,
      "этим": 2304,
      "пожа": 2305,
      "Ри": 2306,
      "образова": 2307,
      "доку": 2308,
      "##явля": 2309,
      "дека": 2310,
      "сти": 2311,
      "сказать": 2312,
      "поги": 2313,
      "##чин": 2314,
      "##рин": 2315,
      "##пей": 2316,
      "написа": 2317,
      "##ником": 2318,
      "люби": 2319,
      "##пря": 2320,
      "##лья": 2321,
      "тро": 2322,
      "##пуска": 2323,
      "совершен": 2324,
      "шта": 2325,
      "млн": 2326,
      "ноя": 2327,
      "нор": 2328,
      "бере": 2329,
      "совсем": 2330,
      "учи": 2331,
      "изда": 2332,
      "##ляр": 2333,
      "##грани": 2334,
      "решение": 2335,
      "Вер": 2336,
      "сентября": 2337,
      "##мена": 2338,
      "Бы": 2339,
      "хозя": 2340,
      "иде": 2341,
      "##готов": 2342,
      "##ющей": 2343,
      "официаль": 2344,
      "политиче": 2345,
      "конф": 2346,
      "##жении": 2347,
      "##стр": 2348,
      "##ющим": 2349,
      "автомоби": 2350,
      "##боль": 2351,
      "Ранее": 2352,
      "##говори": 2353,
      "##зии": 2354,
      "посе": 2355,
      "называ": 2356,
      "##стой": 2357,
      "##ющего": 2358,
      "количе": 2359,
      "##чку": 2360,
      "##шком": 2361,
      "неу": 2362,
      "апре": 2363,
      "Кроме": 2364,
      "фе": 2365,
      "##дил": 2366,
      "получа": 2367,
      "площа": 2368,
      "режи": 2369,
      "перио": 2370,
      "##цов": 2371,
      "финан": 2372,
      "продолжа": 2373,
      "расска": 2374,
      "дерев": 2375,
      "лучше": 2376,
      "##рам": 2377,
      "среди": 2378,
      "подоб": 2379,
      "стали": 2380,
      "отде": 2381,
      "граждан": 2382,
      "национа": 2383,
      "##is": 2384,
      "дости": 2385,
      "мир": 2386,
      "противо": 2387,
      "##жной": 2388,
      "стоя": 2389,
      "##дит": 2390,
      "долла": 2391,
      "##доро": 2392,
      "##тр": 2393,
      "деятель": 2394,
      "одна": 2395,
      "мину": 2396,
      "увер": 2397,
      "##ческие": 2398,
      "##ac": 2399,
      "##там": 2400,
      "сделать": 2401,
      "Кар": 2402,
      "##телем": 2403,
      "необходимо": 2404,
      "##лла": 2405,
      "##ческий": 2406,
      "попы": 2407,
      "стар": 2408,
      "##нно": 2409,
      "возду": 2410,
      "результате": 2411,
      "##циали": 2412,
      "##жей": 2413,
      "стан": 2414,
      "##лый": 2415,
      "##лого": 2416,
      "##веден": 2417,
      "##ровал": 2418,
      "##слен": 2419,
      "уди": 2420,
      "собира": 2421,
      "сообщил": 2422,
      "##рот": 2423,
      "окон": 2424,
      "тяже": 2425,
      "подня": 2426,
      "##нить": 2427,
      "писа": 2428,
      "опреде": 2429,
      "##щие": 2430,
      "пози": 2431,
      "такое": 2432,
      "##ску": 2433,
      "##или": 2434,
      "безопас": 2435,
      "Петер": 2436,
      "##точно": 2437,
      "разме": 2438,
      "четыре": 2439,
      "Мне": 2440,
      "##нулась": 2441,
      "##лой": 2442,
      "узна": 2443,
      "##ёр": 2444,
      "##ственного": 2445,
      "разли": 2446,
      "деле": 2447,
      "##их": 2448,
      "тому": 2449,
      "дня": 2450,
      "тол": 2451,
      "месте": 2452,
      "начина": 2453,
      "первый": 2454,
      "другие": 2455,
      "##лень": 2456,
      "##лета": 2457,
      "##нице": 2458,
      "##нал": 2459,
      "основа": 2460,
      "Ав": 2461,
      "Сан": 2462,
      "##пом": 2463,
      "куль": 2464,
      "материа": 2465,
      "Пи": 2466,
      "свое": 2467,
      "##раб": 2468,
      "обеспе": 2469,
      "своим": 2470,
      "##вен": 2471,
      "зако": 2472,
      "22": 2473,
      "предо": 2474,
      "упо": 2475,
      "##над": 2476,
      "род": 2477,
      "затем": 2478,
      "осу": 2479,
      "##нения": 2480,
      "аген": 2481,
      "менее": 2482,
      "##тура": 2483,
      "Вели": 2484,
      "##ристи": 2485,
      "##вез": 2486,
      "закры": 2487,
      "21": 2488,
      "пя": 2489,
      "##ить": 2490,
      "фу": 2491,
      "##лит": 2492,
      "две": 2493,
      "повер": 2494,
      "кры": 2495,
      "пример": 2496,
      "представля": 2497,
      "кур": 2498,
      "бес": 2499,
      "возра": 2500,
      "км": 2501,
      "##ель": 2502,
      "##ила": 2503,
      "соста": 2504,
      "сни": 2505,
      "скоро": 2506,
      "администра": 2507,
      "196": 2508,
      "193": 2509,
      "00": 2510,
      "фото": 2511,
      "##зов": 2512,
      "##вались": 2513,
      "которое": 2514,
      "улы": 2515,
      "принима": 2516,
      "197": 2517,
      "состав": 2518,
      "таки": 2519,
      "Кры": 2520,
      "##мыш": 2521,
      "##льное": 2522,
      "##рит": 2523,
      "руки": 2524,
      "заяв": 2525,
      "имеет": 2526,
      "##чены": 2527,
      "утвер": 2528,
      "##зывает": 2529,
      "##el": 2530,
      "говорит": 2531,
      "##тах": 2532,
      "##сколь": 2533,
      "##циа": 2534,
      "##тельной": 2535,
      "24": 2536,
      "##стри": 2537,
      "генера": 2538,
      "##кус": 2539,
      "неме": 2540,
      "такие": 2541,
      "организа": 2542,
      "рез": 2543,
      "##лок": 2544,
      "##кнул": 2545,
      "##держ": 2546,
      "быстро": 2547,
      "##нок": 2548,
      "##льная": 2549,
      "контро": 2550,
      "прин": 2551,
      "удо": 2552,
      "потре": 2553,
      "октября": 2554,
      "делать": 2555,
      "международ": 2556,
      "##пада": 2557,
      "ожида": 2558,
      "##ственный": 2559,
      "##дук": 2560,
      "Россий": 2561,
      "поме": 2562,
      "кажды": 2563,
      "назна": 2564,
      "сами": 2565,
      "##ум": 2566,
      "котором": 2567,
      "##ева": 2568,
      "100": 2569,
      "##чат": 2570,
      "авиа": 2571,
      "использова": 2572,
      "каза": 2573,
      "мая": 2574,
      "стала": 2575,
      "сказала": 2576,
      "##ter": 2577,
      "наблю": 2578,
      "##ССР": 2579,
      "##шно": 2580,
      "производ": 2581,
      "##льным": 2582,
      "деву": 2583,
      "##ницу": 2584,
      "стол": 2585,
      "еди": 2586,
      "установ": 2587,
      "газ": 2588,
      "##жем": 2589,
      "завер": 2590,
      "преступ": 2591,
      "самом": 2592,
      "##il": 2593,
      "##струк": 2594,
      "##ствовать": 2595,
      "исклю": 2596,
      "начала": 2597,
      "президент": 2598,
      "Ти": 2599,
      "говоря": 2600,
      "исследова": 2601,
      "долго": 2602,
      "кос": 2603,
      "##пли": 2604,
      "мень": 2605,
      "никто": 2606,
      "##тых": 2607,
      "##йдет": 2608,
      "профе": 2609,
      "января": 2610,
      "лицо": 2611,
      "серь": 2612,
      "сезо": 2613,
      "ито": 2614,
      "запре": 2615,
      "пора": 2616,
      "куда": 2617,
      "ор": 2618,
      "дире": 2619,
      "находится": 2620,
      "бю": 2621,
      "оружи": 2622,
      "##част": 2623,
      "##матри": 2624,
      "уж": 2625,
      "мол": 2626,
      "Раз": 2627,
      "памя": 2628,
      "посмотре": 2629,
      "проводи": 2630,
      "##сен": 2631,
      "##as": 2632,
      "которую": 2633,
      "##тые": 2634,
      "ск": 2635,
      "##хода": 2636,
      "мой": 2637,
      "вд": 2638,
      "##am": 2639,
      "возвра": 2640,
      "бри": 2641,
      "тво": 2642,
      "##ждение": 2643,
      "районе": 2644,
      "тур": 2645,
      "##вобо": 2646,
      "вол": 2647,
      "##дать": 2648,
      "##зма": 2649,
      "напо": 2650,
      "убе": 2651,
      "аль": 2652,
      "##тар": 2653,
      "музы": 2654,
      "отметил": 2655,
      "региона": 2656,
      "таких": 2657,
      "народ": 2658,
      "##еру": 2659,
      "февраля": 2660,
      "##ствии": 2661,
      "президента": 2662,
      "Никола": 2663,
      "друг": 2664,
      "##тина": 2665,
      "##ствовал": 2666,
      "Пере": 2667,
      "##ИА": 2668,
      "##виси": 2669,
      "постоя": 2670,
      "кли": 2671,
      "района": 2672,
      "измен": 2673,
      "Мак": 2674,
      "##рения": 2675,
      "##так": 2676,
      "центра": 2677,
      "##нт": 2678,
      "##ленно": 2679,
      "##нам": 2680,
      "актив": 2681,
      "собы": 2682,
      "##дро": 2683,
      "августа": 2684,
      "##лами": 2685,
      "поэтому": 2686,
      "##дал": 2687,
      "Мин": 2688,
      "второй": 2689,
      "живо": 2690,
      "неф": 2691,
      "преду": 2692,
      "специаль": 2693,
      "23": 2694,
      "пара": 2695,
      "##жных": 2696,
      "##рования": 2697,
      "Новости": 2698,
      "##сил": 2699,
      "##еди": 2700,
      "пунк": 2701,
      "получил": 2702,
      "стоит": 2703,
      "слишком": 2704,
      "энер": 2705,
      "##рее": 2706,
      "##точ": 2707,
      "##щую": 2708,
      "ды": 2709,
      "##тал": 2710,
      "##дят": 2711,
      "##нка": 2712,
      "деньги": 2713,
      "например": 2714,
      "смотре": 2715,
      "группы": 2716,
      "депута": 2717,
      "отмеча": 2718,
      "хи": 2719,
      "социаль": 2720,
      "50": 2721,
      "##след": 2722,
      "внут": 2723,
      "увели": 2724,
      "##стно": 2725,
      "объек": 2726,
      "ны": 2727,
      "комна": 2728,
      "192": 2729,
      "коло": 2730,
      "собра": 2731,
      "##вид": 2732,
      "види": 2733,
      "детей": 2734,
      "##лев": 2735,
      "харак": 2736,
      "Пред": 2737,
      "195": 2738,
      "##et": 2739,
      "##тельный": 2740,
      "##йн": 2741,
      "меди": 2742,
      "##каз": 2743,
      "##нди": 2744,
      "Боль": 2745,
      "Пе": 2746,
      "##нил": 2747,
      "##ed": 2748,
      "марта": 2749,
      "Гу": 2750,
      "равно": 2751,
      "реаль": 2752,
      "##говор": 2753,
      "Ге": 2754,
      "источ": 2755,
      "##лл": 2756,
      "июля": 2757,
      "##ктора": 2758,
      "##чие": 2759,
      "##еты": 2760,
      "##лда": 2761,
      "пять": 2762,
      "##вало": 2763,
      "##тая": 2764,
      "##жай": 2765,
      "добави": 2766,
      "##док": 2767,
      "##щении": 2768,
      "##id": 2769,
      "зда": 2770,
      "годы": 2771,
      "Герма": 2772,
      "мл": 2773,
      "ночь": 2774,
      "наи": 2775,
      "миро": 2776,
      "##ol": 2777,
      "суд": 2778,
      "мало": 2779,
      "Миха": 2780,
      "СССР": 2781,
      "##роде": 2782,
      "##чает": 2783,
      "сель": 2784,
      "сум": 2785,
      "Александр": 2786,
      "требо": 2787,
      "фран": 2788,
      "##нин": 2789,
      "##жо": 2790,
      "Воз": 2791,
      "##ьер": 2792,
      "прямо": 2793,
      "##чать": 2794,
      "участие": 2795,
      "##сили": 2796,
      "##тельных": 2797,
      "##тать": 2798,
      "убий": 2799,
      "Поч": 2800,
      "##выми": 2801,
      "##няя": 2802,
      "##нять": 2803,
      "##ing": 2804,
      "##казыва": 2805,
      "##варти": 2806,
      "##лые": 2807,
      "рядом": 2808,
      "##лых": 2809,
      "##лением": 2810,
      "двер": 2811,
      "отказа": 2812,
      "кро": 2813,
      "мире": 2814,
      "столи": 2815,
      "заме": 2816,
      "оборо": 2817,
      "191": 2818,
      "ноября": 2819,
      "##чо": 2820,
      "##роят": 2821,
      "относи": 2822,
      "##бин": 2823,
      "сю": 2824,
      "четвер": 2825,
      "##шед": 2826,
      "свер": 2827,
      "часто": 2828,
      "Также": 2829,
      "Украине": 2830,
      "пово": 2831,
      "Владимир": 2832,
      "##ставить": 2833,
      "гро": 2834,
      "треть": 2835,
      "край": 2836,
      "един": 2837,
      "##вольно": 2838,
      "вок": 2839,
      "июня": 2840,
      "руководи": 2841,
      "кого": 2842,
      "##таль": 2843,
      "##чная": 2844,
      "удалось": 2845,
      "прошло": 2846,
      "качестве": 2847,
      "Ша": 2848,
      "работу": 2849,
      "##скольку": 2850,
      "ссы": 2851,
      "##езд": 2852,
      "Спа": 2853,
      "##чным": 2854,
      "обяза": 2855,
      "испол": 2856,
      "##хе": 2857,
      "вспо": 2858,
      "задержа": 2859,
      "отправи": 2860,
      "спросил": 2861,
      "##гей": 2862,
      "##конец": 2863,
      "##ственных": 2864,
      "##пара": 2865,
      "апреля": 2866,
      "какие": 2867,
      "##вай": 2868,
      "млрд": 2869,
      "реб": 2870,
      "борь": 2871,
      "электро": 2872,
      "Москве": 2873,
      "воору": 2874,
      "этому": 2875,
      "поку": 2876,
      "выс": 2877,
      "Сейчас": 2878,
      "тон": 2879,
      "##льзя": 2880,
      "##вшей": 2881,
      "##цами": 2882,
      "##слав": 2883,
      "##чик": 2884,
      "##oo": 2885,
      "современ": 2886,
      "Только": 2887,
      "##нный": 2888,
      "тыс": 2889,
      "подума": 2890,
      "Ком": 2891,
      "подтвер": 2892,
      "##чая": 2893,
      "##ставил": 2894,
      "голову": 2895,
      "Чи": 2896,
      "наро": 2897,
      "##йд": 2898,
      "##лять": 2899,
      "26": 2900,
      "оно": 2901,
      "обсу": 2902,
      "##кви": 2903,
      "поряд": 2904,
      "мед": 2905,
      "смы": 2906,
      "РИА": 2907,
      "таким": 2908,
      "хва": 2909,
      "запа": 2910,
      "поте": 2911,
      "чуть": 2912,
      "##us": 2913,
      "поддерж": 2914,
      "причи": 2915,
      "малень": 2916,
      "сама": 2917,
      "продук": 2918,
      "##риан": 2919,
      "##тельные": 2920,
      "отве": 2921,
      "огром": 2922,
      "секре": 2923,
      "##вок": 2924,
      "##дцать": 2925,
      "ТА": 2926,
      "Федера": 2927,
      "безопасности": 2928,
      "##сед": 2929,
      "##гии": 2930,
      "сторону": 2931,
      "агент": 2932,
      "игро": 2933,
      "плани": 2934,
      "Теперь": 2935,
      "##зм": 2936,
      "##бург": 2937,
      "##гом": 2938,
      "точно": 2939,
      "Дми": 2940,
      "Зна": 2941,
      "##лина": 2942,
      "навер": 2943,
      "ранее": 2944,
      "права": 2945,
      "сере": 2946,
      "##жит": 2947,
      "немного": 2948,
      "##шать": 2949,
      "##ляет": 2950,
      "##тельного": 2951,
      "27": 2952,
      "минут": 2953,
      "##шет": 2954,
      "##смотря": 2955,
      "##нев": 2956,
      "##ТО": 2957,
      "##qu": 2958,
      "комплек": 2959,
      "достаточно": 2960,
      "выступа": 2961,
      "28": 2962,
      "##сить": 2963,
      "кварти": 2964,
      "оте": 2965,
      "срав": 2966,
      "##тной": 2967,
      "##стом": 2968,
      "глава": 2969,
      "золо": 2970,
      "мор": 2971,
      "ходе": 2972,
      "##ффек": 2973,
      "городе": 2974,
      "##кин": 2975,
      "##чит": 2976,
      "неболь": 2977,
      "спра": 2978,
      "вид": 2979,
      "руковод": 2980,
      "##лова": 2981,
      "универ": 2982,
      "журнали": 2983,
      "неиз": 2984,
      "должна": 2985,
      "истории": 2986,
      "##ерен": 2987,
      "декабря": 2988,
      "цер": 2989,
      "разрабо": 2990,
      "транспо": 2991,
      "серьез": 2992,
      "пси": 2993,
      "воло": 2994,
      "государства": 2995,
      "##нули": 2996,
      "всю": 2997,
      "2016": 2998,
      "##пози": 2999,
      "##дали": 3000,
      "гре": 3001,
      "##сок": 3002,
      "возможность": 3003,
      "##рко": 3004,
      "##нных": 3005,
      "##сон": 3006,
      "течение": 3007,
      "дене": 3008,
      "подоз": 3009,
      "##лка": 3010,
      "##лим": 3011,
      "##джет": 3012,
      "приходи": 3013,
      "вдруг": 3014,
      "Алексе": 3015,
      "улыб": 3016,
      "совершенно": 3017,
      "трен": 3018,
      "##жил": 3019,
      "действительно": 3020,
      "поз": 3021,
      "прибы": 3022,
      "##ями": 3023,
      "каждый": 3024,
      "передает": 3025,
      "##нологи": 3026,
      "##ливо": 3027,
      "##рить": 3028,
      "могли": 3029,
      "##шку": 3030,
      "##лег": 3031,
      "губер": 3032,
      "##сной": 3033,
      "организации": 3034,
      "оши": 3035,
      "##тный": 3036,
      "распро": 3037,
      "семь": 3038,
      "##ro": 3039,
      "публи": 3040,
      "начал": 3041,
      "##пор": 3042,
      "известно": 3043,
      "терро": 3044,
      "##дох": 3045,
      "ото": 3046,
      "внутрен": 3047,
      "указа": 3048,
      "сим": 3049,
      "зву": 3050,
      "анти": 3051,
      "опас": 3052,
      "представ": 3053,
      "##чное": 3054,
      "##вей": 3055,
      "ТАСС": 3056,
      "Дмитри": 3057,
      "прем": 3058,
      "##гру": 3059,
      "угро": 3060,
      "останови": 3061,
      "##юз": 3062,
      "##СК": 3063,
      "республи": 3064,
      "##эро": 3065,
      "##un": 3066,
      "дра": 3067,
      "фон": 3068,
      "руку": 3069,
      "##ваются": 3070,
      "идет": 3071,
      "конку": 3072,
      "повы": 3073,
      "сохра": 3074,
      "готов": 3075,
      "##валась": 3076,
      "Там": 3077,
      "биз": 3078,
      "особенно": 3079,
      "##менты": 3080,
      "ограни": 3081,
      "##нала": 3082,
      "##нные": 3083,
      "разре": 3084,
      "началь": 3085,
      "рам": 3086,
      "##куда": 3087,
      "##дили": 3088,
      "Чер": 3089,
      "забо": 3090,
      "##зь": 3091,
      "40": 3092,
      "францу": 3093,
      "анг": 3094,
      "##нной": 3095,
      "пись": 3096,
      "использу": 3097,
      "##никами": 3098,
      "све": 3099,
      "Поэтому": 3100,
      "находя": 3101,
      "##дия": 3102,
      "Может": 3103,
      "вну": 3104,
      "будто": 3105,
      "своем": 3106,
      "##били": 3107,
      "расположен": 3108,
      "начале": 3109,
      "погиб": 3110,
      "подчер": 3111,
      "вет": 3112,
      "##гам": 3113,
      "беспо": 3114,
      "##нув": 3115,
      "истори": 3116,
      "специали": 3117,
      "##нав": 3118,
      "холо": 3119,
      "Дон": 3120,
      "такого": 3121,
      "норма": 3122,
      "долларов": 3123,
      "ныне": 3124,
      "##ваю": 3125,
      "ответил": 3126,
      "##еме": 3127,
      "##чески": 3128,
      "Сергей": 3129,
      "##ровали": 3130,
      "##мышлен": 3131,
      "опы": 3132,
      "##жные": 3133,
      "физи": 3134,
      "друга": 3135,
      "##мости": 3136,
      "забы": 3137,
      "контра": 3138,
      "##ществ": 3139,
      "иностран": 3140,
      "Цен": 3141,
      "близ": 3142,
      "испы": 3143,
      "трех": 3144,
      "дней": 3145,
      "нес": 3146,
      "комму": 3147,
      "широ": 3148,
      "тан": 3149,
      "провер": 3150,
      "отра": 3151,
      "##тка": 3152,
      "пользова": 3153,
      "##ad": 3154,
      "одним": 3155,
      "реали": 3156,
      "оконча": 3157,
      "дом": 3158,
      "##полне": 3159,
      "диа": 3160,
      "словно": 3161,
      "спу": 3162,
      "##шений": 3163,
      "оби": 3164,
      "говорится": 3165,
      "Бер": 3166,
      "Ско": 3167,
      "##валось": 3168,
      "постро": 3169,
      "партии": 3170,
      "##вода": 3171,
      "##гли": 3172,
      "выз": 3173,
      "##ологи": 3174,
      "##рем": 3175,
      "обу": 3176,
      "полностью": 3177,
      "запад": 3178,
      "##жный": 3179,
      "самого": 3180,
      "населения": 3181,
      "случай": 3182,
      "времен": 3183,
      "часов": 3184,
      "информации": 3185,
      "Тогда": 3186,
      "немец": 3187,
      "след": 3188,
      "счет": 3189,
      "внеш": 3190,
      "Тем": 3191,
      "ними": 3192,
      "##нику": 3193,
      "верси": 3194,
      "##тные": 3195,
      "приз": 3196,
      "хоть": 3197,
      "потеря": 3198,
      "системы": 3199,
      "встреча": 3200,
      "##гами": 3201,
      "давно": 3202,
      "Ос": 3203,
      "Совет": 3204,
      "очере": 3205,
      "законо": 3206,
      "шо": 3207,
      "непри": 3208,
      "##риа": 3209,
      "армии": 3210,
      "выгля": 3211,
      "вокруг": 3212,
      "##лью": 3213,
      "Украина": 3214,
      "##надле": 3215,
      "значит": 3216,
      "##рил": 3217,
      "которым": 3218,
      "##волю": 3219,
      "сил": 3220,
      "стране": 3221,
      "##лений": 3222,
      "2013": 3223,
      "всей": 3224,
      "предприя": 3225,
      "кораб": 3226,
      "##стати": 3227,
      "##ям": 3228,
      "нельзя": 3229,
      "##ion": 3230,
      "##обре": 3231,
      "##тили": 3232,
      "процен": 3233,
      "com": 3234,
      "##леко": 3235,
      "##первые": 3236,
      "худо": 3237,
      "пои": 3238,
      "##лё": 3239,
      "уголов": 3240,
      "##рес": 3241,
      "##тей": 3242,
      "##рыв": 3243,
      "Кор": 3244,
      "рак": 3245,
      "29": 3246,
      "Ива": 3247,
      "##бом": 3248,
      "Восто": 3249,
      "##шлось": 3250,
      "the": 3251,
      "##лению": 3252,
      "согласи": 3253,
      "паль": 3254,
      "запи": 3255,
      "##кими": 3256,
      "говорить": 3257,
      "Аль": 3258,
      "##жить": 3259,
      "##эн": 3260,
      "принадле": 3261,
      "предло": 3262,
      "##рое": 3263,
      "суб": 3264,
      "дво": 3265,
      "кажется": 3266,
      "искус": 3267,
      "большой": 3268,
      "отношения": 3269,
      "хра": 3270,
      "Сто": 3271,
      "##кура": 3272,
      "команды": 3273,
      "освобо": 3274,
      "двига": 3275,
      "большин": 3276,
      "##хом": 3277,
      "прак": 3278,
      "##рина": 3279,
      "хотел": 3280,
      "поскольку": 3281,
      "##нуться": 3282,
      "кроме": 3283,
      "впере": 3284,
      "##гой": 3285,
      "смерти": 3286,
      "##ниц": 3287,
      "станови": 3288,
      "экспер": 3289,
      "##and": 3290,
      "санк": 3291,
      "##новь": 3292,
      "##рос": 3293,
      "##льном": 3294,
      "работ": 3295,
      "##ходят": 3296,
      "подготов": 3297,
      "##шему": 3298,
      "##читы": 3299,
      "скры": 3300,
      "##цени": 3301,
      "очередь": 3302,
      "оде": 3303,
      "примен": 3304,
      "аб": 3305,
      "NE": 3306,
      "##роб": 3307,
      "рассказал": 3308,
      "судь": 3309,
      "##еть": 3310,
      "Газ": 3311,
      "составе": 3312,
      "дальше": 3313,
      "прош": 3314,
      "наши": 3315,
      "##тельным": 3316,
      "##тился": 3317,
      "мнению": 3318,
      "аре": 3319,
      "вече": 3320,
      "эффек": 3321,
      "тр": 3322,
      "##WS": 3323,
      "тай": 3324,
      "частности": 3325,
      "изу": 3326,
      "ощу": 3327,
      "кино": 3328,
      "##телями": 3329,
      "содержа": 3330,
      "внимание": 3331,
      "##ленных": 3332,
      "##нской": 3333,
      "допол": 3334,
      "##лог": 3335,
      "##гие": 3336,
      "Ча": 3337,
      "влия": 3338,
      "##щим": 3339,
      "##чай": 3340,
      "##муще": 3341,
      "уничто": 3342,
      "NEWS": 3343,
      "##фон": 3344,
      "нашей": 3345,
      "##зовать": 3346,
      "NEWSru": 3347,
      "поле": 3348,
      "##нского": 3349,
      "выше": 3350,
      "##ступил": 3351,
      "Кто": 3352,
      "##шенко": 3353,
      "предложи": 3354,
      "##стями": 3355,
      "тек": 3356,
      "ал": 3357,
      "Между": 3358,
      "рамках": 3359,
      "Еще": 3360,
      "СМ": 3361,
      "##фика": 3362,
      "Фи": 3363,
      "бюджет": 3364,
      "обви": 3365,
      "вполне": 3366,
      "Почему": 3367,
      "неда": 3368,
      "##ig": 3369,
      "##доров": 3370,
      "хочу": 3371,
      "силы": 3372,
      "##эр": 3373,
      "подписа": 3374,
      "Би": 3375,
      "полови": 3376,
      "##коми": 3377,
      "меньше": 3378,
      "пят": 3379,
      "##ВД": 3380,
      "##ждать": 3381,
      "период": 3382,
      "креди": 3383,
      "отношении": 3384,
      "упа": 3385,
      "##зор": 3386,
      "##жали": 3387,
      "теа": 3388,
      "##ствуют": 3389,
      "##ческая": 3390,
      "##жением": 3391,
      "##жного": 3392,
      "председа": 3393,
      "говорил": 3394,
      "попу": 3395,
      "##ющее": 3396,
      "Путин": 3397,
      "министр": 3398,
      "##емых": 3399,
      "несколь": 3400,
      "сцен": 3401,
      "##рик": 3402,
      "##кар": 3403,
      "##зер": 3404,
      "вновь": 3405,
      "Ис": 3406,
      "протя": 3407,
      "##дж": 3408,
      "##мах": 3409,
      "##стру": 3410,
      "случи": 3411,
      "Май": 3412,
      "европей": 3413,
      "количество": 3414,
      "ап": 3415,
      "видео": 3416,
      "##тром": 3417,
      "сделал": 3418,
      "##даря": 3419,
      "интерес": 3420,
      "века": 3421,
      "мета": 3422,
      "помощи": 3423,
      "университ": 3424,
      "каса": 3425,
      "Москвы": 3426,
      "поко": 3427,
      "##сколько": 3428,
      "##im": 3429,
      "##ньше": 3430,
      "принци": 3431,
      "##хран": 3432,
      "невоз": 3433,
      "капита": 3434,
      "##лкой": 3435,
      "ост": 3436,
      "##II": 3437,
      "##град": 3438,
      "многие": 3439,
      "степ": 3440,
      "##лете": 3441,
      "qu": 3442,
      "Интер": 3443,
      "съ": 3444,
      "нового": 3445,
      "##ющая": 3446,
      "комит": 3447,
      "неде": 3448,
      "Сле": 3449,
      "Бра": 3450,
      "##веро": 3451,
      "Бар": 3452,
      "Тур": 3453,
      "отсут": 3454,
      "сколько": 3455,
      "##рого": 3456,
      "##рец": 3457,
      "госпо": 3458,
      "знал": 3459,
      "мощ": 3460,
      "той": 3461,
      "федера": 3462,
      "##пов": 3463,
      "Фо": 3464,
      "##la": 3465,
      "компания": 3466,
      "ситуации": 3467,
      "Согла": 3468,
      "##гер": 3469,
      "постав": 3470,
      "##чном": 3471,
      "##мон": 3472,
      "регу": 3473,
      "раньше": 3474,
      "работать": 3475,
      "правительства": 3476,
      "##начала": 3477,
      "##тного": 3478,
      "##ента": 3479,
      "##вшая": 3480,
      "имени": 3481,
      "измени": 3482,
      "намер": 3483,
      "Ев": 3484,
      "архи": 3485,
      "ближай": 3486,
      "сопро": 3487,
      "##тым": 3488,
      "Москов": 3489,
      "перегово": 3490,
      "вариан": 3491,
      "поки": 3492,
      "предлага": 3493,
      "##емон": 3494,
      "управления": 3495,
      "оди": 3496,
      "спокой": 3497,
      "последние": 3498,
      "добро": 3499,
      "новый": 3500,
      "уче": 3501,
      "##лях": 3502,
      "действия": 3503,
      "##торов": 3504,
      "##лко": 3505,
      "превра": 3506,
      "развития": 3507,
      "бой": 3508,
      "##клады": 3509,
      "31": 3510,
      "кам": 3511,
      "привле": 3512,
      "группа": 3513,
      "настоящее": 3514,
      "сре": 3515,
      "конца": 3516,
      "##дитель": 3517,
      "##цем": 3518,
      "##форми": 3519,
      "##енси": 3520,
      "Глав": 3521,
      "##эй": 3522,
      "##помним": 3523,
      "солда": 3524,
      "хозяй": 3525,
      "умер": 3526,
      "##они": 3527,
      "прид": 3528,
      "прежде": 3529,
      "думаю": 3530,
      "присут": 3531,
      "нему": 3532,
      "##дки": 3533,
      "финансо": 3534,
      "ум": 3535,
      "##чено": 3536,
      "желез": 3537,
      "##шает": 3538,
      "пес": 3539,
      "The": 3540,
      "обнаружи": 3541,
      "считает": 3542,
      "Дже": 3543,
      "район": 3544,
      "##юза": 3545,
      "ата": 3546,
      "уверен": 3547,
      "Или": 3548,
      "зло": 3549,
      "##телям": 3550,
      "##НР": 3551,
      "##бов": 3552,
      "свидет": 3553,
      "##луй": 3554,
      "##мень": 3555,
      "турни": 3556,
      "осно": 3557,
      "##сона": 3558,
      "Европы": 3559,
      "кило": 3560,
      "туда": 3561,
      "захва": 3562,
      "Жи": 3563,
      "лица": 3564,
      "нуж": 3565,
      "постра": 3566,
      "##дина": 3567,
      "##тник": 3568,
      "российских": 3569,
      "уме": 3570,
      "##льную": 3571,
      "первой": 3572,
      "##ственные": 3573,
      "##мено": 3574,
      "##ch": 3575,
      "##все": 3576,
      "понял": 3577,
      "француз": 3578,
      "##руется": 3579,
      "##дий": 3580,
      "маль": 3581,
      "вста": 3582,
      "##чную": 3583,
      "сильно": 3584,
      "бло": 3585,
      "проте": 3586,
      "озна": 3587,
      "легко": 3588,
      "реки": 3589,
      "выда": 3590,
      "##тельное": 3591,
      "СМИ": 3592,
      "взгляд": 3593,
      "сна": 3594,
      "##вили": 3595,
      "вза": 3596,
      "ква": 3597,
      "##ссажи": 3598,
      "парла": 3599,
      "ужа": 3600,
      "демо": 3601,
      "сокра": 3602,
      "самых": 3603,
      "##руют": 3604,
      "Напомним": 3605,
      "Каза": 3606,
      "##лимпи": 3607,
      "составляет": 3608,
      "существо": 3609,
      "видел": 3610,
      "опубли": 3611,
      "##бере": 3612,
      "мной": 3613,
      "сом": 3614,
      "могла": 3615,
      "2012": 3616,
      "сообщили": 3617,
      "##зывать": 3618,
      "жерт": 3619,
      "##нили": 3620,
      "совме": 3621,
      "фрон": 3622,
      "рели": 3623,
      "##сер": 3624,
      "первых": 3625,
      "##втра": 3626,
      "самое": 3627,
      "технологи": 3628,
      "службы": 3629,
      "##жений": 3630,
      "##нулись": 3631,
      "##ent": 3632,
      "каждо": 3633,
      "##нке": 3634,
      "##шить": 3635,
      "решил": 3636,
      "пропа": 3637,
      "##ленные": 3638,
      "бога": 3639,
      "выи": 3640,
      "одну": 3641,
      "##лье": 3642,
      "ОО": 3643,
      "##лад": 3644,
      "кня": 3645,
      "новые": 3646,
      "боя": 3647,
      "требу": 3648,
      "Пар": 3649,
      "##нки": 3650,
      "Север": 3651,
      "##сят": 3652,
      "имя": 3653,
      "мага": 3654,
      "сро": 3655,
      "опять": 3656,
      "Лени": 3657,
      "тради": 3658,
      "слыша": 3659,
      "пишет": 3660,
      "такая": 3661,
      "довольно": 3662,
      "дверь": 3663,
      "##сам": 3664,
      "пути": 3665,
      "##мар": 3666,
      "##жала": 3667,
      "##лот": 3668,
      "связа": 3669,
      "##мые": 3670,
      "##ментов": 3671,
      "Хотя": 3672,
      "найти": 3673,
      "##ква": 3674,
      "мере": 3675,
      "##лам": 3676,
      "##ехал": 3677,
      "следует": 3678,
      "плохо": 3679,
      "иска": 3680,
      "2010": 3681,
      "##гры": 3682,
      "новых": 3683,
      "помощью": 3684,
      "игры": 3685,
      "##зей": 3686,
      "##ведение": 3687,
      "полно": 3688,
      "##нюю": 3689,
      "ще": 3690,
      "##вшим": 3691,
      "поро": 3692,
      "Конечно": 3693,
      "##мых": 3694,
      "##бил": 3695,
      "##рту": 3696,
      "пой": 3697,
      "##каде": 3698,
      "наконец": 3699,
      "прод": 3700,
      "воск": 3701,
      "план": 3702,
      "##прочем": 3703,
      "Исто": 3704,
      "произошло": 3705,
      "##более": 3706,
      "осуществ": 3707,
      "##мира": 3708,
      "годах": 3709,
      "голос": 3710,
      "самой": 3711,
      "Ген": 3712,
      "##ir": 3713,
      "поддержи": 3714,
      "##нение": 3715,
      "##матиче": 3716,
      "НА": 3717,
      "первого": 3718,
      "сня": 3719,
      "quot": 3720,
      "сборной": 3721,
      "##доб": 3722,
      "##рование": 3723,
      "зе": 3724,
      "##лосо": 3725,
      "наших": 3726,
      "##ваясь": 3727,
      "##дами": 3728,
      "##шта": 3729,
      "знает": 3730,
      "заседа": 3731,
      "практически": 3732,
      "ого": 3733,
      "головой": 3734,
      "##шению": 3735,
      "впервые": 3736,
      "чемпионата": 3737,
      "Васи": 3738,
      "прово": 3739,
      "##рез": 3740,
      "##фици": 3741,
      "##нного": 3742,
      "ид": 3743,
      "средства": 3744,
      "##нему": 3745,
      "посте": 3746,
      "Мини": 3747,
      "празд": 3748,
      "Германии": 3749,
      "##рус": 3750,
      "##пании": 3751,
      "##чек": 3752,
      "##ременно": 3753,
      "очеред": 3754,
      "Поль": 3755,
      "возник": 3756,
      "станет": 3757,
      "Кри": 3758,
      "поста": 3759,
      "привы": 3760,
      "##вить": 3761,
      "пяти": 3762,
      "прос": 3763,
      "##жде": 3764,
      "сай": 3765,
      "##раи": 3766,
      "жителей": 3767,
      "некоторые": 3768,
      "гер": 3769,
      "своими": 3770,
      "Этот": 3771,
      "объяс": 3772,
      "##сю": 3773,
      "канди": 3774,
      "Потом": 3775,
      "##сами": 3776,
      "медици": 3777,
      "крас": 3778,
      "Чу": 3779,
      "##нский": 3780,
      "реко": 3781,
      "Дру": 3782,
      "кандида": 3783,
      "##принима": 3784,
      "зам": 3785,
      "Даже": 3786,
      "объяви": 3787,
      "##ат": 3788,
      "##рый": 3789,
      "пришлось": 3790,
      "пригла": 3791,
      "проблемы": 3792,
      "скорее": 3793,
      "наш": 3794,
      "происходит": 3795,
      "##печат": 3796,
      "Франции": 3797,
      "воды": 3798,
      "мас": 3799,
      "отправ": 3800,
      "разо": 3801,
      "##ходить": 3802,
      "мето": 3803,
      "##мотри": 3804,
      "члено": 3805,
      "Вто": 3806,
      "ведом": 3807,
      "Донец": 3808,
      "##дор": 3809,
      "##никам": 3810,
      "мона": 3811,
      "##сторо": 3812,
      "магази": 3813,
      "одном": 3814,
      "миллионов": 3815,
      "роль": 3816,
      "Хоро": 3817,
      "фигу": 3818,
      "изобра": 3819,
      "наблюда": 3820,
      "хочет": 3821,
      "решения": 3822,
      "дав": 3823,
      "правда": 3824,
      "##дко": 3825,
      "##дите": 3826,
      "нена": 3827,
      "институ": 3828,
      "многих": 3829,
      "##дах": 3830,
      "##ra": 3831,
      "Сего": 3832,
      "пассажи": 3833,
      "Донба": 3834,
      "глубо": 3835,
      "##скоре": 3836,
      "команди": 3837,
      "военно": 3838,
      "##лле": 3839,
      "##вича": 3840,
      "##гах": 3841,
      "анали": 3842,
      "60": 3843,
      "примерно": 3844,
      "геро": 3845,
      "аэро": 3846,
      "##ченко": 3847,
      "премьер": 3848,
      "##нется": 3849,
      "##мана": 3850,
      "##клад": 3851,
      "##тья": 3852,
      "##шил": 3853,
      "спор": 3854,
      "Сегодня": 3855,
      "##ew": 3856,
      "низ": 3857,
      "зави": 3858,
      "замести": 3859,
      "##сур": 3860,
      "##цам": 3861,
      "##зем": 3862,
      "войска": 3863,
      "клю": 3864,
      "##дан": 3865,
      "пост": 3866,
      "Президен": 3867,
      "матча": 3868,
      "самым": 3869,
      "тю": 3870,
      "ката": 3871,
      "##лах": 3872,
      "##пар": 3873,
      "##стях": 3874,
      "деятельности": 3875,
      "арми": 3876,
      "помощь": 3877,
      "движения": 3878,
      "напря": 3879,
      "возмо": 3880,
      "##мый": 3881,
      "выпу": 3882,
      "##тит": 3883,
      "ль": 3884,
      "##ун": 3885,
      "дли": 3886,
      "знако": 3887,
      "самый": 3888,
      "професси": 3889,
      "2011": 3890,
      "##ленный": 3891,
      "Пока": 3892,
      "##лер": 3893,
      "инф": 3894,
      "##два": 3895,
      "ЕС": 3896,
      "##гна": 3897,
      "##бора": 3898,
      "тело": 3899,
      "оцен": 3900,
      "объясни": 3901,
      "35": 3902,
      "дел": 3903,
      "ана": 3904,
      "##ческое": 3905,
      "##пить": 3906,
      "улице": 3907,
      "моей": 3908,
      "вышел": 3909,
      "состави": 3910,
      "бума": 3911,
      "силу": 3912,
      "парт": 3913,
      "Есть": 3914,
      "губерна": 3915,
      "важно": 3916,
      "сайте": 3917,
      "полиции": 3918,
      "##ственным": 3919,
      "техниче": 3920,
      "##ванием": 3921,
      "дальней": 3922,
      "краси": 3923,
      "обычно": 3924,
      "женщина": 3925,
      "средств": 3926,
      "##сибо": 3927,
      "##гать": 3928,
      "диви": 3929,
      "пользу": 3930,
      "связан": 3931,
      "##вов": 3932,
      "являются": 3933,
      "Гор": 3934,
      "##вью": 3935,
      "догово": 3936,
      "секу": 3937,
      "##дам": 3938,
      "меха": 3939,
      "денег": 3940,
      "Гре": 3941,
      "##зил": 3942,
      "##дает": 3943,
      "гос": 3944,
      "##лая": 3945,
      "##креп": 3946,
      "трав": 3947,
      "проб": 3948,
      "##дения": 3949,
      "Москва": 3950,
      "##роприя": 3951,
      "##чета": 3952,
      "##чень": 3953,
      "лично": 3954,
      "##няет": 3955,
      "уси": 3956,
      "##гно": 3957,
      "добавил": 3958,
      "##раба": 3959,
      "независи": 3960,
      "вместо": 3961,
      "посо": 3962,
      "чита": 3963,
      "##тики": 3964,
      "вероят": 3965,
      "будем": 3966,
      "Андрей": 3967,
      "говорят": 3968,
      "##емый": 3969,
      "##чением": 3970,
      "##слов": 3971,
      "нескольких": 3972,
      "возможности": 3973,
      "созна": 3974,
      "речь": 3975,
      "##менти": 3976,
      "Зем": 3977,
      "##чении": 3978,
      "получить": 3979,
      "мои": 3980,
      "##сах": 3981,
      "форма": 3982,
      "of": 3983,
      "бар": 3984,
      "##ческим": 3985,
      "приобре": 3986,
      "радио": 3987,
      "Ал": 3988,
      "##тию": 3989,
      "исче": 3990,
      "выну": 3991,
      "Ru": 3992,
      "другими": 3993,
      "##жным": 3994,
      "доказа": 3995,
      "##лить": 3996,
      "##ленной": 3997,
      "##емся": 3998,
      "##чера": 3999,
      "система": 4000,
      "##ственное": 4001,
      "##ur": 4002,
      "отец": 4003,
      "вопросы": 4004,
      "##щему": 4005,
      "литера": 4006,
      "Фа": 4007,
      "##лети": 4008,
      "оцени": 4009,
      "корре": 4010,
      "матче": 4011,
      "обеща": 4012,
      "##боро": 4013,
      "##ровки": 4014,
      "сих": 4015,
      "утвержда": 4016,
      "функ": 4017,
      "начали": 4018,
      "##грал": 4019,
      "прибли": 4020,
      "мужчи": 4021,
      "##питан": 4022,
      "ошиб": 4023,
      "сюда": 4024,
      "бом": 4025,
      "##низ": 4026,
      "##навли": 4027,
      "##езда": 4028,
      "никаких": 4029,
      "Иго": 4030,
      "##лым": 4031,
      "струк": 4032,
      "##жешь": 4033,
      "ссылкой": 4034,
      "прожи": 4035,
      "Поро": 4036,
      "Эти": 4037,
      "спорт": 4038,
      "##мей": 4039,
      "длин": 4040,
      "##тивно": 4041,
      "удиви": 4042,
      "оказался": 4043,
      "Гри": 4044,
      "слово": 4045,
      "стара": 4046,
      "неизвест": 4047,
      "семей": 4048,
      "Согласно": 4049,
      "главы": 4050,
      "Здесь": 4051,
      "сне": 4052,
      "простран": 4053,
      "Вол": 4054,
      "возбу": 4055,
      "##наче": 4056,
      "##думы": 4057,
      "правитель": 4058,
      "стоимо": 4059,
      "тео": 4060,
      "##бло": 4061,
      "повто": 4062,
      "нач": 4063,
      "миллиар": 4064,
      "англий": 4065,
      "вроде": 4066,
      "нали": 4067,
      "##тельная": 4068,
      "серд": 4069,
      "невозможно": 4070,
      "##служи": 4071,
      "сторон": 4072,
      "коллек": 4073,
      "мероприя": 4074,
      "##мир": 4075,
      "##мор": 4076,
      "замеча": 4077,
      "Прав": 4078,
      "годов": 4079,
      "состо": 4080,
      "массо": 4081,
      "##емой": 4082,
      "Россию": 4083,
      "промышлен": 4084,
      "Российской": 4085,
      "##тива": 4086,
      "меч": 4087,
      "##бран": 4088,
      "##цер": 4089,
      "суде": 4090,
      "сообщалось": 4091,
      "дево": 4092,
      "##пан": 4093,
      "##шек": 4094,
      "разве": 4095,
      "##солю": 4096,
      "жить": 4097,
      "ску": 4098,
      "##рева": 4099,
      "опро": 4100,
      "##гар": 4101,
      "##мым": 4102,
      "свобод": 4103,
      "##емые": 4104,
      "понять": 4105,
      "##тисти": 4106,
      "##чке": 4107,
      "древ": 4108,
      "Ор": 4109,
      "##мин": 4110,
      "##ходил": 4111,
      "следова": 4112,
      "метров": 4113,
      "Дмитрий": 4114,
      "мысли": 4115,
      "коммента": 4116,
      "##ia": 4117,
      "устро": 4118,
      "работе": 4119,
      "##порт": 4120,
      "Гра": 4121,
      "Амери": 4122,
      "представитель": 4123,
      "разу": 4124,
      "полицей": 4125,
      "клуба": 4126,
      "психо": 4127,
      "нынеш": 4128,
      "ини": 4129,
      "чинов": 4130,
      "разру": 4131,
      "гости": 4132,
      "получили": 4133,
      "Хар": 4134,
      "услу": 4135,
      "рассматри": 4136,
      "моя": 4137,
      "##вайте": 4138,
      "##няется": 4139,
      "предполага": 4140,
      "расши": 4141,
      "Сирии": 4142,
      "Санкт": 4143,
      "Федерации": 4144,
      "цвет": 4145,
      "состоянии": 4146,
      "190": 4147,
      "##ционной": 4148,
      "стату": 4149,
      "##ляется": 4150,
      "несмотря": 4151,
      "гля": 4152,
      "шу": 4153,
      "##писы": 4154,
      "другим": 4155,
      "70": 4156,
      "Республи": 4157,
      "##спек": 4158,
      "Ведь": 4159,
      "можете": 4160,
      "ответствен": 4161,
      "##интере": 4162,
      "##дент": 4163,
      "пото": 4164,
      "уточ": 4165,
      "##сад": 4166,
      "служба": 4167,
      "корот": 4168,
      "экспе": 4169,
      "мужчина": 4170,
      "##дев": 4171,
      "##фак": 4172,
      "Ана": 4173,
      "попыта": 4174,
      "весьма": 4175,
      "вперед": 4176,
      "нрави": 4177,
      "##чали": 4178,
      "Ги": 4179,
      "ребен": 4180,
      "москов": 4181,
      "##год": 4182,
      "##тания": 4183,
      "зрения": 4184,
      "##новременно": 4185,
      "##меть": 4186,
      "##тябре": 4187,
      "##ace": 4188,
      "приводи": 4189,
      "водо": 4190,
      "ситуация": 4191,
      "##зить": 4192,
      "позд": 4193,
      "кризи": 4194,
      "утра": 4195,
      "расследова": 4196,
      "типа": 4197,
      "раза": 4198,
      "##пен": 4199,
      "направи": 4200,
      "револю": 4201,
      "горя": 4202,
      "секрета": 4203,
      "##кри": 4204,
      "некоторых": 4205,
      "2009": 4206,
      "##чается": 4207,
      "##дри": 4208,
      "работает": 4209,
      "Порошенко": 4210,
      "##оз": 4211,
      "##поли": 4212,
      "Пра": 4213,
      "бле": 4214,
      "выбра": 4215,
      "2008": 4216,
      "доступ": 4217,
      "##числен": 4218,
      "проект": 4219,
      "##нике": 4220,
      "российского": 4221,
      "колле": 4222,
      "суда": 4223,
      "Один": 4224,
      "##кса": 4225,
      "ноги": 4226,
      "новой": 4227,
      "сложно": 4228,
      "километ": 4229,
      "##тиви": 4230,
      "уз": 4231,
      "внутри": 4232,
      "эле": 4233,
      "доби": 4234,
      "профессиона": 4235,
      "пенси": 4236,
      "иногда": 4237,
      "##чили": 4238,
      "##шой": 4239,
      "отда": 4240,
      "поэ": 4241,
      "##сля": 4242,
      "фотографи": 4243,
      "любой": 4244,
      "возгла": 4245,
      "##гло": 4246,
      "##кли": 4247,
      "##туру": 4248,
      "радо": 4249,
      "зво": 4250,
      "Оте": 4251,
      "условиях": 4252,
      "другу": 4253,
      "центре": 4254,
      "Джо": 4255,
      "охра": 4256,
      "##страи": 4257,
      "45": 4258,
      "соба": 4259,
      "посла": 4260,
      "террори": 4261,
      "Бело": 4262,
      "зу": 4263,
      "##вшийся": 4264,
      "цели": 4265,
      "услыша": 4266,
      "Нью": 4267,
      "действий": 4268,
      "женщины": 4269,
      "первую": 4270,
      "держа": 4271,
      "благодаря": 4272,
      "сот": 4273,
      "далеко": 4274,
      "неожида": 4275,
      "кому": 4276,
      "название": 4277,
      "здоров": 4278,
      "##тила": 4279,
      "посвя": 4280,
      "женщин": 4281,
      "центр": 4282,
      "Слу": 4283,
      "воспо": 4284,
      "месяцев": 4285,
      "ресур": 4286,
      "Затем": 4287,
      "кив": 4288,
      "восста": 4289,
      "проблема": 4290,
      "разных": 4291,
      "попроси": 4292,
      "Красно": 4293,
      "образ": 4294,
      "вспомни": 4295,
      "##туре": 4296,
      "моз": 4297,
      "Ад": 4298,
      "наиболее": 4299,
      "постоянно": 4300,
      "Рас": 4301,
      "уровне": 4302,
      "Центра": 4303,
      "дополнитель": 4304,
      "##ую": 4305,
      "захо": 4306,
      "##пет": 4307,
      "доме": 4308,
      "гри": 4309,
      "заметил": 4310,
      "Свя": 4311,
      "первом": 4312,
      "##гро": 4313,
      "май": 4314,
      "бизнес": 4315,
      "особо": 4316,
      "##тика": 4317,
      "##чий": 4318,
      "полага": 4319,
      "безу": 4320,
      "охо": 4321,
      "Через": 4322,
      "##ческую": 4323,
      "##лку": 4324,
      "север": 4325,
      "Алексей": 4326,
      "работал": 4327,
      "##титься": 4328,
      "##чала": 4329,
      "##ностей": 4330,
      "веду": 4331,
      "##тое": 4332,
      "конфлик": 4333,
      "##ент": 4334,
      "предупре": 4335,
      "##шёл": 4336,
      "домой": 4337,
      "придется": 4338,
      "##веща": 4339,
      "девя": 4340,
      "пару": 4341,
      "90": 4342,
      "ев": 4343,
      "##гут": 4344,
      "##зья": 4345,
      "##жает": 4346,
      "Запад": 4347,
      "обороны": 4348,
      "какое": 4349,
      "знать": 4350,
      "##мую": 4351,
      "данные": 4352,
      "статисти": 4353,
      "##город": 4354,
      "##тором": 4355,
      "##шке": 4356,
      "китай": 4357,
      "ран": 4358,
      "сможет": 4359,
      "##спон": 4360,
      "дороги": 4361,
      "##чности": 4362,
      "##ющими": 4363,
      "путь": 4364,
      "##вил": 4365,
      "какая": 4366,
      "ряд": 4367,
      "завтра": 4368,
      "Джон": 4369,
      "глаз": 4370,
      "выход": 4371,
      "##ссия": 4372,
      "информацию": 4373,
      "Ши": 4374,
      "соответству": 4375,
      "поверх": 4376,
      "запо": 4377,
      "клуб": 4378,
      "имеют": 4379,
      "кори": 4380,
      "болез": 4381,
      "Коро": 4382,
      "Ира": 4383,
      "Велико": 4384,
      "военных": 4385,
      "установи": 4386,
      "In": 4387,
      "запла": 4388,
      "Ман": 4389,
      "едва": 4390,
      "воро": 4391,
      "множе": 4392,
      "##бить": 4393,
      "машины": 4394,
      "Госпо": 4395,
      "высоко": 4396,
      "Им": 4397,
      "корпу": 4398,
      "награ": 4399,
      "увидел": 4400,
      "##мая": 4401,
      "российской": 4402,
      "##чика": 4403,
      "##ссы": 4404,
      "пору": 4405,
      "покупа": 4406,
      "тысячи": 4407,
      "##бар": 4408,
      "##лон": 4409,
      "ори": 4410,
      "последний": 4411,
      "насто": 4412,
      "линии": 4413,
      "##тона": 4414,
      "Джей": 4415,
      "реак": 4416,
      "встречи": 4417,
      "##рыва": 4418,
      "почу": 4419,
      "число": 4420,
      "британ": 4421,
      "##рачи": 4422,
      "настро": 4423,
      "торго": 4424,
      "##гает": 4425,
      "неве": 4426,
      "команду": 4427,
      "##чих": 4428,
      "##тали": 4429,
      "столь": 4430,
      "##кнов": 4431,
      "законода": 4432,
      "сет": 4433,
      "понимаю": 4434,
      "популяр": 4435,
      "ат": 4436,
      "##гия": 4437,
      "Пол": 4438,
      "шесть": 4439,
      "##чник": 4440,
      "##бурге": 4441,
      "най": 4442,
      "##писи": 4443,
      "товари": 4444,
      "каким": 4445,
      "Зо": 4446,
      "##гал": 4447,
      "поводу": 4448,
      "ока": 4449,
      "обстоя": 4450,
      "абсолю": 4451,
      "яв": 4452,
      "реда": 4453,
      "Гос": 4454,
      "##os": 4455,
      "казалось": 4456,
      "##фри": 4457,
      "яр": 4458,
      "Бори": 4459,
      "аппара": 4460,
      "##тивных": 4461,
      "остро": 4462,
      "##дила": 4463,
      "основном": 4464,
      "##ственная": 4465,
      "##фу": 4466,
      "шан": 4467,
      "Серге": 4468,
      "использовать": 4469,
      "in": 4470,
      "Рус": 4471,
      "Ху": 4472,
      "##интересо": 4473,
      "обраща": 4474,
      "##ера": 4475,
      "торгов": 4476,
      "министра": 4477,
      "став": 4478,
      "коле": 4479,
      "##стров": 4480,
      "валю": 4481,
      "Сте": 4482,
      "правительство": 4483,
      "##ook": 4484,
      "##чами": 4485,
      "эпи": 4486,
      "Верхов": 4487,
      "Пари": 4488,
      "напомина": 4489,
      "описа": 4490,
      "##анта": 4491,
      "попро": 4492,
      "Их": 4493,
      "карь": 4494,
      "МВД": 4495,
      "избира": 4496,
      "зачем": 4497,
      "кров": 4498,
      "поясни": 4499,
      "##гото": 4500,
      "земли": 4501,
      "форми": 4502,
      "мать": 4503,
      "Фон": 4504,
      "##жели": 4505,
      "##чиво": 4506,
      "##джи": 4507,
      "##ut": 4508,
      "##тное": 4509,
      "свидетель": 4510,
      "##тую": 4511,
      "##сток": 4512,
      "##щиков": 4513,
      "холод": 4514,
      "80": 4515,
      "события": 4516,
      "вынужден": 4517,
      "перево": 4518,
      "тихо": 4519,
      "юри": 4520,
      "##рованы": 4521,
      "проекта": 4522,
      "##мое": 4523,
      "ува": 4524,
      "демон": 4525,
      "Среди": 4526,
      "союз": 4527,
      "покры": 4528,
      "##треб": 4529,
      "демокра": 4530,
      "##тку": 4531,
      "##ници": 4532,
      "хотелось": 4533,
      "молоды": 4534,
      "программы": 4535,
      "Тре": 4536,
      "мер": 4537,
      "re": 4538,
      "замо": 4539,
      "Таким": 4540,
      "##ВА": 4541,
      "St": 4542,
      "удар": 4543,
      "##ссу": 4544,
      "Впрочем": 4545,
      "##бурга": 4546,
      "разде": 4547,
      "##ходили": 4548,
      "первым": 4549,
      "боеви": 4550,
      "ru": 4551,
      "втор": 4552,
      "транспорт": 4553,
      "Анг": 4554,
      "##дешь": 4555,
      "Сам": 4556,
      "Гар": 4557,
      "точки": 4558,
      "##ow": 4559,
      "бело": 4560,
      "макси": 4561,
      "Киев": 4562,
      "конкре": 4563,
      "##ov": 4564,
      "##стана": 4565,
      "руках": 4566,
      "принял": 4567,
      "мг": 4568,
      "##ссий": 4569,
      "пала": 4570,
      "Правда": 4571,
      "лиц": 4572,
      "##ционных": 4573,
      "##тке": 4574,
      "##кому": 4575,
      "своему": 4576,
      "##шением": 4577,
      "итоге": 4578,
      "возвраща": 4579,
      "##ИД": 4580,
      "##вела": 4581,
      "прият": 4582,
      "становится": 4583,
      "##ag": 4584,
      "присо": 4585,
      "##жки": 4586,
      "есте": 4587,
      "столько": 4588,
      "##чешь": 4589,
      "гря": 4590,
      "Чем": 4591,
      "микро": 4592,
      "Эта": 4593,
      "обязан": 4594,
      "поддержа": 4595,
      "##20": 4596,
      "##лови": 4597,
      "##говари": 4598,
      "##жная": 4599,
      "##тите": 4600,
      "##нял": 4601,
      "##раздо": 4602,
      "дети": 4603,
      "твор": 4604,
      "##стам": 4605,
      "опублико": 4606,
      "##ниципа": 4607,
      "середи": 4608,
      "##ционного": 4609,
      "десять": 4610,
      "пересе": 4611,
      "Мен": 4612,
      "переста": 4613,
      "целом": 4614,
      "##ствовала": 4615,
      "исчез": 4616,
      "кате": 4617,
      "любов": 4618,
      "сф": 4619,
      "операции": 4620,
      "см": 4621,
      "сначала": 4622,
      "##стить": 4623,
      "##бка": 4624,
      "страте": 4625,
      "характер": 4626,
      "степени": 4627,
      "##нина": 4628,
      "автома": 4629,
      "##парта": 4630,
      "удоб": 4631,
      "##стья": 4632,
      "которому": 4633,
      "Ше": 4634,
      "положи": 4635,
      "инициа": 4636,
      "##образ": 4637,
      "Потому": 4638,
      "##вшихся": 4639,
      "проблем": 4640,
      "##нная": 4641,
      "##пру": 4642,
      "пом": 4643,
      "##обе": 4644,
      "##стами": 4645,
      "недоста": 4646,
      "##лил": 4647,
      "всему": 4648,
      "выступ": 4649,
      "нашего": 4650,
      "рав": 4651,
      "другом": 4652,
      "##вут": 4653,
      "никак": 4654,
      "целью": 4655,
      "##меня": 4656,
      "инте": 4657,
      "взял": 4658,
      "##поль": 4659,
      "нака": 4660,
      "##тная": 4661,
      "отца": 4662,
      "##рудова": 4663,
      "Именно": 4664,
      "взаимо": 4665,
      "обвин": 4666,
      "##зывал": 4667,
      "директор": 4668,
      "Япо": 4669,
      "моря": 4670,
      "Просто": 4671,
      "##дцати": 4672,
      "##емого": 4673,
      "почув": 4674,
      "подчеркнул": 4675,
      "##фы": 4676,
      "##чными": 4677,
      "##ствовали": 4678,
      "##мос": 4679,
      "Лон": 4680,
      "интервью": 4681,
      "путе": 4682,
      "конферен": 4683,
      "практи": 4684,
      "принять": 4685,
      "##лён": 4686,
      "##чился": 4687,
      "ау": 4688,
      "ца": 4689,
      "##рица": 4690,
      "устрой": 4691,
      "тела": 4692,
      "Президент": 4693,
      "II": 4694,
      "Мэ": 4695,
      "море": 4696,
      "##iv": 4697,
      "##ющую": 4698,
      "##тает": 4699,
      "Чтобы": 4700,
      "уровня": 4701,
      "написал": 4702,
      "##леты": 4703,
      "цар": 4704,
      "проз": 4705,
      "##зация": 4706,
      "Оба": 4707,
      "конкур": 4708,
      "##чена": 4709,
      "Евг": 4710,
      "войск": 4711,
      "Национа": 4712,
      "службе": 4713,
      "иначе": 4714,
      "сотрудниче": 4715,
      "комитета": 4716,
      "наказа": 4717,
      "позволя": 4718,
      "поля": 4719,
      "ниже": 4720,
      "сердце": 4721,
      "прошлом": 4722,
      "добы": 4723,
      "##ствием": 4724,
      "##дился": 4725,
      "поднима": 4726,
      "нарко": 4727,
      "##дим": 4728,
      "##тным": 4729,
      "##дон": 4730,
      "##ставили": 4731,
      "##чиков": 4732,
      "тен": 4733,
      "Мед": 4734,
      "отре": 4735,
      "непре": 4736,
      "Андре": 4737,
      "распростран": 4738,
      "##шими": 4739,
      "Хорошо": 4740,
      "согласно": 4741,
      "карти": 4742,
      "мировой": 4743,
      "странице": 4744,
      "##тек": 4745,
      "играть": 4746,
      "##тивный": 4747,
      "худож": 4748,
      "вовсе": 4749,
      "каких": 4750,
      "подроб": 4751,
      "##ниях": 4752,
      "сосед": 4753,
      "##ческом": 4754,
      "зад": 4755,
      "##пно": 4756,
      "людя": 4757,
      "##довал": 4758,
      "трудно": 4759,
      "##льт": 4760,
      "власть": 4761,
      "сын": 4762,
      "штра": 4763,
      "гар": 4764,
      "2007": 4765,
      "Где": 4766,
      "##вии": 4767,
      "команда": 4768,
      "музыка": 4769,
      "импера": 4770,
      "скло": 4771,
      "##циях": 4772,
      "весе": 4773,
      "Надо": 4774,
      "виду": 4775,
      "гром": 4776,
      "Пав": 4777,
      "час": 4778,
      "слуша": 4779,
      "пусть": 4780,
      "студен": 4781,
      "##нда": 4782,
      "вернулся": 4783,
      "настолько": 4784,
      "вещи": 4785,
      "пого": 4786,
      "учре": 4787,
      "##лимпий": 4788,
      "##рет": 4789,
      "Крым": 4790,
      "##разу": 4791,
      "стен": 4792,
      "игру": 4793,
      "Великобри": 4794,
      "Кла": 4795,
      "культуры": 4796,
      "сда": 4797,
      "солн": 4798,
      "удив": 4799,
      "подс": 4800,
      "гораздо": 4801,
      "касается": 4802,
      "порядке": 4803,
      "##зия": 4804,
      "##рение": 4805,
      "тепло": 4806,
      "пове": 4807,
      "смог": 4808,
      "превы": 4809,
      "сообщении": 4810,
      "страш": 4811,
      "##чению": 4812,
      "общем": 4813,
      "школы": 4814,
      "видимо": 4815,
      "выде": 4816,
      "симво": 4817,
      "500": 4818,
      "самые": 4819,
      "рукой": 4820,
      "иметь": 4821,
      "общества": 4822,
      "##чался": 4823,
      "Совета": 4824,
      "оружия": 4825,
      "Гру": 4826,
      "##тивной": 4827,
      "Тут": 4828,
      "еже": 4829,
      "рей": 4830,
      "##прос": 4831,
      "##доль": 4832,
      "суме": 4833,
      "тобой": 4834,
      "36": 4835,
      "ООН": 4836,
      "появля": 4837,
      "##тельности": 4838,
      "перво": 4839,
      "арен": 4840,
      "Мари": 4841,
      "##пел": 4842,
      "##пой": 4843,
      "##вока": 4844,
      "Поли": 4845,
      "срок": 4846,
      "дать": 4847,
      "##нное": 4848,
      "нами": 4849,
      "това": 4850,
      "##мит": 4851,
      "выясни": 4852,
      "летний": 4853,
      "главный": 4854,
      "##гну": 4855,
      "##жены": 4856,
      "впечат": 4857,
      "Ст": 4858,
      "Дума": 4859,
      "##дыду": 4860,
      "##нией": 4861,
      "компью": 4862,
      "откуда": 4863,
      "##пил": 4864,
      "катего": 4865,
      "мгнов": 4866,
      "##мимо": 4867,
      "политики": 4868,
      "поне": 4869,
      "##ходы": 4870,
      "данный": 4871,
      "церков": 4872,
      "остав": 4873,
      "муниципа": 4874,
      "провести": 4875,
      "##ана": 4876,
      "глазами": 4877,
      "выпла": 4878,
      "изо": 4879,
      "Государ": 4880,
      "помочь": 4881,
      "вести": 4882,
      "двор": 4883,
      "предвари": 4884,
      "##лив": 4885,
      "образования": 4886,
      "уро": 4887,
      "позже": 4888,
      "взять": 4889,
      "некото": 4890,
      "генерал": 4891,
      "разгово": 4892,
      "мыс": 4893,
      "300": 4894,
      "силь": 4895,
      "##ится": 4896,
      "##нта": 4897,
      "##дыха": 4898,
      "боро": 4899,
      "администрации": 4900,
      "акаде": 4901,
      "##em": 4902,
      "##тыми": 4903,
      "оппози": 4904,
      "Вме": 4905,
      "раст": 4906,
      "месяца": 4907,
      "дни": 4908,
      "КП": 4909,
      "##това": 4910,
      "##шев": 4911,
      "исти": 4912,
      "##um": 4913,
      "девушка": 4914,
      "32": 4915,
      "идти": 4916,
      "for": 4917,
      "сек": 4918,
      "футболи": 4919,
      "##тесь": 4920,
      "дал": 4921,
      "десяти": 4922,
      "производи": 4923,
      "##оте": 4924,
      "совета": 4925,
      "первые": 4926,
      "уровень": 4927,
      "##ёх": 4928,
      "распоря": 4929,
      "препо": 4930,
      "Шу": 4931,
      "двери": 4932,
      "##щик": 4933,
      "##пустил": 4934,
      "спраши": 4935,
      "##пки": 4936,
      "оружие": 4937,
      "земле": 4938,
      "Сем": 4939,
      "одновременно": 4940,
      "вечером": 4941,
      "##лец": 4942,
      "##нению": 4943,
      "рода": 4944,
      "экспо": 4945,
      "##зин": 4946,
      "##защи": 4947,
      "Путина": 4948,
      "прошлого": 4949,
      "гео": 4950,
      "Ай": 4951,
      "Интерфак": 4952,
      "Европе": 4953,
      "мили": 4954,
      "производства": 4955,
      "имел": 4956,
      "брат": 4957,
      "##луч": 4958,
      "документа": 4959,
      "республики": 4960,
      "Возможно": 4961,
      "##жется": 4962,
      "телека": 4963,
      "##кали": 4964,
      "посмотреть": 4965,
      "находятся": 4966,
      "потер": 4967,
      "инвести": 4968,
      "##бок": 4969,
      "##джа": 4970,
      "Аб": 4971,
      "##диви": 4972,
      "представители": 4973,
      "##ec": 4974,
      "НАТО": 4975,
      "сопер": 4976,
      "##ні": 4977,
      "марш": 4978,
      "ua": 4979,
      "видно": 4980,
      "наверное": 4981,
      "Ее": 4982,
      "обнару": 4983,
      "оба": 4984,
      "##ковой": 4985,
      "спец": 4986,
      "моего": 4987,
      "позиции": 4988,
      "189": 4989,
      "дипло": 4990,
      "##вит": 4991,
      "жало": 4992,
      "разно": 4993,
      "автор": 4994,
      "цвета": 4995,
      "смерть": 4996,
      "##пания": 4997,
      "##чила": 4998,
      "печа": 4999,
      "фильм": 5000,
      "учены": 5001,
      "спорта": 5002,
      "другого": 5003,
      "Мор": 5004,
      "##лож": 5005,
      "##мера": 5006,
      "##кер": 5007,
      "пожалуй": 5008,
      "процесс": 5009,
      "обстре": 5010,
      "##ht": 5011,
      "оборудова": 5012,
      "театра": 5013,
      "##стной": 5014,
      "##дио": 5015,
      "Бан": 5016,
      "семьи": 5017,
      "Например": 5018,
      "##кров": 5019,
      "месяц": 5020,
      "мяг": 5021,
      "Международ": 5022,
      "большинство": 5023,
      "домаш": 5024,
      "государство": 5025,
      "##ровала": 5026,
      "различных": 5027,
      "000": 5028,
      "##мого": 5029,
      "##зывали": 5030,
      "теку": 5031,
      "оказалось": 5032,
      "голосо": 5033,
      "##гни": 5034,
      "часа": 5035,
      "Александра": 5036,
      "##ченных": 5037,
      "подвер": 5038,
      "иностранных": 5039,
      "##кор": 5040,
      "профессо": 5041,
      "думал": 5042,
      "заво": 5043,
      "оказыва": 5044,
      "##женных": 5045,
      "##ждении": 5046,
      "лей": 5047,
      "включая": 5048,
      "Оста": 5049,
      "##катери": 5050,
      "Очень": 5051,
      "ребя": 5052,
      "версии": 5053,
      "каждого": 5054,
      "##гран": 5055,
      "##пя": 5056,
      "делу": 5057,
      "вами": 5058,
      "пти": 5059,
      "##гляды": 5060,
      "##ходов": 5061,
      "##ay": 5062,
      "Ио": 5063,
      "##скор": 5064,
      "рекла": 5065,
      "учеб": 5066,
      "двумя": 5067,
      "##сила": 5068,
      "преи": 5069,
      "##споко": 5070,
      "матч": 5071,
      "Констан": 5072,
      "##довать": 5073,
      "##нился": 5074,
      "знаешь": 5075,
      "Пла": 5076,
      "тренер": 5077,
      "##пись": 5078,
      "вечер": 5079,
      "##мены": 5080,
      "одино": 5081,
      "Ленин": 5082,
      "Кэ": 5083,
      "честь": 5084,
      "##ой": 5085,
      "Нор": 5086,
      "друзья": 5087,
      "стоял": 5088,
      "считают": 5089,
      "заболе": 5090,
      "##проек": 5091,
      "провин": 5092,
      "2006": 5093,
      "Бри": 5094,
      "ракет": 5095,
      "япо": 5096,
      "явно": 5097,
      "недели": 5098,
      "and": 5099,
      "##довлет": 5100,
      "Мон": 5101,
      "##хар": 5102,
      "подраз": 5103,
      "##АО": 5104,
      "полез": 5105,
      "лидер": 5106,
      "##жела": 5107,
      "##нос": 5108,
      "смот": 5109,
      "##тельную": 5110,
      "утром": 5111,
      "##гети": 5112,
      "действу": 5113,
      "медленно": 5114,
      "опа": 5115,
      "форму": 5116,
      "##сторон": 5117,
      "данных": 5118,
      "##кипа": 5119,
      "персона": 5120,
      "##тились": 5121,
      "##форм": 5122,
      "момента": 5123,
      "Рабо": 5124,
      "роли": 5125,
      "2000": 5126,
      "##чики": 5127,
      "##oc": 5128,
      "##тальян": 5129,
      "филосо": 5130,
      "министер": 5131,
      "##нным": 5132,
      "Стра": 5133,
      "##ехали": 5134,
      "##гая": 5135,
      "МО": 5136,
      "Михаил": 5137,
      "подумал": 5138,
      "##бир": 5139,
      "труд": 5140,
      "никакого": 5141,
      "духов": 5142,
      "ситуацию": 5143,
      "##тала": 5144,
      "прокура": 5145,
      "Израи": 5146,
      "##телю": 5147,
      "резко": 5148,
      "развед": 5149,
      "##знакоми": 5150,
      "Макси": 5151,
      "агре": 5152,
      "##вшиеся": 5153,
      "руками": 5154,
      "ими": 5155,
      "##нера": 5156,
      "Джа": 5157,
      "Уже": 5158,
      "приро": 5159,
      "внимания": 5160,
      "исполн": 5161,
      "станции": 5162,
      "располага": 5163,
      "##сред": 5164,
      "##пора": 5165,
      "воздуш": 5166,
      "таком": 5167,
      "существует": 5168,
      "солдат": 5169,
      "сче": 5170,
      "вчера": 5171,
      "##оны": 5172,
      "33": 5173,
      "мужчин": 5174,
      "дро": 5175,
      "факт": 5176,
      "##льд": 5177,
      "##летов": 5178,
      "Ах": 5179,
      "претен": 5180,
      "площади": 5181,
      "##od": 5182,
      "незакон": 5183,
      "порт": 5184,
      "важ": 5185,
      "погибли": 5186,
      "Дэ": 5187,
      "##ce": 5188,
      "##нан": 5189,
      "делает": 5190,
      "ВВ": 5191,
      "##мани": 5192,
      "##ri": 5193,
      "##ющем": 5194,
      "заку": 5195,
      "спросила": 5196,
      "##ющихся": 5197,
      "##ционный": 5198,
      "интернет": 5199,
      "членов": 5200,
      "отдела": 5201,
      "наме": 5202,
      "пет": 5203,
      "темпера": 5204,
      "Николай": 5205,
      "предыду": 5206,
      "плен": 5207,
      "##тации": 5208,
      "##пле": 5209,
      "##тании": 5210,
      "напад": 5211,
      "предпринима": 5212,
      "креп": 5213,
      "##щать": 5214,
      "##пустить": 5215,
      "##нуне": 5216,
      "следующий": 5217,
      "корреспон": 5218,
      "##охра": 5219,
      "Мер": 5220,
      "##ётся": 5221,
      "2017": 5222,
      "площадь": 5223,
      "посмотрел": 5224,
      "бед": 5225,
      "область": 5226,
      "Три": 5227,
      "##ехать": 5228,
      "Первый": 5229,
      "яко": 5230,
      "церкви": 5231,
      "##лота": 5232,
      "итогам": 5233,
      "можем": 5234,
      "постанов": 5235,
      "красо": 5236,
      "##способ": 5237,
      "возле": 5238,
      "ген": 5239,
      "пон": 5240,
      "заверши": 5241,
      "поступи": 5242,
      "##казал": 5243,
      "слы": 5244,
      "деятельность": 5245,
      "##ционные": 5246,
      "крупней": 5247,
      "заявля": 5248,
      "вторы": 5249,
      "##мость": 5250,
      "круг": 5251,
      "##мум": 5252,
      "##нести": 5253,
      "книги": 5254,
      "восстанов": 5255,
      "##шкой": 5256,
      "изменения": 5257,
      "Кали": 5258,
      "темно": 5259,
      "газа": 5260,
      "зарабо": 5261,
      "язык": 5262,
      "экономики": 5263,
      "сопрово": 5264,
      "схва": 5265,
      "##тивного": 5266,
      "голу": 5267,
      "автобу": 5268,
      "косми": 5269,
      "##эль": 5270,
      "другое": 5271,
      "ава": 5272,
      "сети": 5273,
      "##АР": 5274,
      "регуляр": 5275,
      "оказались": 5276,
      "движение": 5277,
      "##сный": 5278,
      "спокойно": 5279,
      "сча": 5280,
      "##вании": 5281,
      "Доб": 5282,
      "Ваши": 5283,
      "##стые": 5284,
      "##ревнова": 5285,
      "##тим": 5286,
      "##льными": 5287,
      "##кру": 5288,
      "сыгра": 5289,
      "видеть": 5290,
      "тури": 5291,
      "избе": 5292,
      "##лерий": 5293,
      "##нила": 5294,
      "неделю": 5295,
      "относительно": 5296,
      "СК": 5297,
      "##лке": 5298,
      "Россией": 5299,
      "##нувшись": 5300,
      "##енье": 5301,
      "подъ": 5302,
      "проведения": 5303,
      "##кля": 5304,
      "##чительно": 5305,
      "Екатери": 5306,
      "выво": 5307,
      "объяв": 5308,
      "группи": 5309,
      "##book": 5310,
      "зар": 5311,
      "юго": 5312,
      "пострада": 5313,
      "список": 5314,
      "##стры": 5315,
      "религи": 5316,
      "##ів": 5317,
      "событий": 5318,
      "такую": 5319,
      "##дови": 5320,
      "##жено": 5321,
      "##сыпа": 5322,
      "российский": 5323,
      "нер": 5324,
      "основе": 5325,
      "Можно": 5326,
      "мнение": 5327,
      "##пят": 5328,
      "##зирован": 5329,
      "##луа": 5330,
      "ребенка": 5331,
      "ядер": 5332,
      "берегу": 5333,
      "Рей": 5334,
      "похоже": 5335,
      "досто": 5336,
      "Второй": 5337,
      "случилось": 5338,
      "увеличи": 5339,
      "восем": 5340,
      "землю": 5341,
      "лоша": 5342,
      "компаний": 5343,
      "прось": 5344,
      "гг": 5345,
      "конструк": 5346,
      "спосо": 5347,
      "доб": 5348,
      "Ак": 5349,
      "зер": 5350,
      "Министер": 5351,
      "##шься": 5352,
      "стреми": 5353,
      "спаса": 5354,
      "приводит": 5355,
      "34": 5356,
      "трени": 5357,
      "газо": 5358,
      "поза": 5359,
      "реша": 5360,
      "Ска": 5361,
      "решили": 5362,
      "##ленного": 5363,
      "Кие": 5364,
      "аресто": 5365,
      "банков": 5366,
      "##сия": 5367,
      "Петербург": 5368,
      "##ристиан": 5369,
      "Йор": 5370,
      "Всего": 5371,
      "Ему": 5372,
      "##th": 5373,
      "##рика": 5374,
      "##енных": 5375,
      "ненави": 5376,
      "недавно": 5377,
      "снима": 5378,
      "##нович": 5379,
      "##кос": 5380,
      "Ита": 5381,
      "отвер": 5382,
      "##вшую": 5383,
      "МИД": 5384,
      "##мея": 5385,
      "слов": 5386,
      "опо": 5387,
      "##чества": 5388,
      "реа": 5389,
      "ранен": 5390,
      "инстру": 5391,
      "##acebook": 5392,
      "хок": 5393,
      "сегодняш": 5394,
      "сезона": 5395,
      "разные": 5396,
      "##циями": 5397,
      "##бель": 5398,
      "прогно": 5399,
      "##жению": 5400,
      "вице": 5401,
      "мастер": 5402,
      "импе": 5403,
      "ночью": 5404,
      "Мат": 5405,
      "получила": 5406,
      "маршру": 5407,
      "##преде": 5408,
      "тяжело": 5409,
      "причина": 5410,
      "остается": 5411,
      "##лую": 5412,
      "огонь": 5413,
      "участников": 5414,
      "##стива": 5415,
      "логи": 5416,
      "##ess": 5417,
      "XV": 5418,
      "##чется": 5419,
      "раскры": 5420,
      "##обо": 5421,
      "заре": 5422,
      "вскоре": 5423,
      "вниз": 5424,
      "меры": 5425,
      "##гали": 5426,
      "##жь": 5427,
      "##ation": 5428,
      "принято": 5429,
      "фир": 5430,
      "телефон": 5431,
      "отмечает": 5432,
      "##одо": 5433,
      "удоволь": 5434,
      "прежнему": 5435,
      "знамени": 5436,
      "##зит": 5437,
      "положение": 5438,
      "всеми": 5439,
      "рост": 5440,
      "класси": 5441,
      "ясно": 5442,
      "##долго": 5443,
      "процентов": 5444,
      "цены": 5445,
      "вздох": 5446,
      "народа": 5447,
      "определи": 5448,
      "##тье": 5449,
      "##возь": 5450,
      "рейти": 5451,
      "история": 5452,
      "##тивные": 5453,
      "##сторожно": 5454,
      "Игорь": 5455,
      "артил": 5456,
      "путеше": 5457,
      "##суль": 5458,
      "Побе": 5459,
      "главное": 5460,
      "зависи": 5461,
      "Фото": 5462,
      "##ссив": 5463,
      "член": 5464,
      "Сла": 5465,
      "брига": 5466,
      "Спасибо": 5467,
      "послу": 5468,
      "Иван": 5469,
      "##тилась": 5470,
      "Прави": 5471,
      "##чия": 5472,
      "молча": 5473,
      "прис": 5474,
      "стандар": 5475,
      "##ятся": 5476,
      "кем": 5477,
      "предложил": 5478,
      "порядка": 5479,
      "Facebook": 5480,
      "зака": 5481,
      "двое": 5482,
      "мм": 5483,
      "облада": 5484,
      "обратно": 5485,
      "Полу": 5486,
      "##ницей": 5487,
      "назначен": 5488,
      "пришел": 5489,
      "##дже": 5490,
      "северо": 5491,
      "##дум": 5492,
      "осталось": 5493,
      "времена": 5494,
      "предприятия": 5495,
      "##вшегося": 5496,
      "жест": 5497,
      "второго": 5498,
      "четырех": 5499,
      "источник": 5500,
      "##бами": 5501,
      "##тельность": 5502,
      "концов": 5503,
      "здания": 5504,
      "##логии": 5505,
      "опла": 5506,
      "порта": 5507,
      "смотреть": 5508,
      "объедин": 5509,
      "непро": 5510,
      "to": 5511,
      "людям": 5512,
      "помни": 5513,
      "управля": 5514,
      "мое": 5515,
      "патри": 5516,
      "историю": 5517,
      "##дение": 5518,
      "культур": 5519,
      "##сл": 5520,
      "Фор": 5521,
      "посети": 5522,
      "Ир": 5523,
      "##рабаты": 5524,
      "зато": 5525,
      "орден": 5526,
      "поезд": 5527,
      "гаран": 5528,
      "номер": 5529,
      "циф": 5530,
      "расстоя": 5531,
      "какую": 5532,
      "верх": 5533,
      "##нге": 5534,
      "##тника": 5535,
      "##цом": 5536,
      "метро": 5537,
      "зара": 5538,
      "предмет": 5539,
      "Спарта": 5540,
      "преимуще": 5541,
      "жена": 5542,
      "военной": 5543,
      "##ними": 5544,
      "сотрудников": 5545,
      "##кал": 5546,
      "отстав": 5547,
      "##видно": 5548,
      "судеб": 5549,
      "шаг": 5550,
      "##ложить": 5551,
      "##ланд": 5552,
      "сообщила": 5553,
      "##енный": 5554,
      "Дей": 5555,
      "стороне": 5556,
      "счаст": 5557,
      "кафе": 5558,
      "Наде": 5559,
      "Зени": 5560,
      "##сного": 5561,
      "рынке": 5562,
      "##енные": 5563,
      "##дка": 5564,
      "нравится": 5565,
      "##чё": 5566,
      "мерт": 5567,
      "Медве": 5568,
      "представителей": 5569,
      "ДНР": 5570,
      "Дан": 5571,
      "Вам": 5572,
      "находился": 5573,
      "появ": 5574,
      "прио": 5575,
      "сына": 5576,
      "глазах": 5577,
      "Ничего": 5578,
      "##ровано": 5579,
      "проведен": 5580,
      "Дина": 5581,
      "победу": 5582,
      "спортс": 5583,
      "университета": 5584,
      "##щена": 5585,
      "зи": 5586,
      "заявила": 5587,
      "серии": 5588,
      "Оль": 5589,
      "родствен": 5590,
      "итальян": 5591,
      "##ссоциа": 5592,
      "рекомен": 5593,
      "Несмотря": 5594,
      "##эм": 5595,
      "рассчиты": 5596,
      "##брь": 5597,
      "##плы": 5598,
      "удовлет": 5599,
      "##АН": 5600,
      "##ченные": 5601,
      "правоохра": 5602,
      "Эр": 5603,
      "инжен": 5604,
      "оз": 5605,
      "##тической": 5606,
      "конкурен": 5607,
      "брать": 5608,
      "жда": 5609,
      "##кает": 5610,
      "Неко": 5611,
      "##енти": 5612,
      "пережи": 5613,
      "##верить": 5614,
      "преступления": 5615,
      "##меется": 5616,
      "увидеть": 5617,
      "обсужда": 5618,
      "соответствии": 5619,
      "твер": 5620,
      "Ура": 5621,
      "зарпла": 5622,
      "Джи": 5623,
      "Ры": 5624,
      "спас": 5625,
      "##сна": 5626,
      "зри": 5627,
      "сцена": 5628,
      "##ворю": 5629,
      "боле": 5630,
      "соревнова": 5631,
      "Исла": 5632,
      "##чкой": 5633,
      "##порта": 5634,
      "меж": 5635,
      "Глава": 5636,
      "временем": 5637,
      "экипа": 5638,
      "##ваны": 5639,
      "##шина": 5640,
      "условия": 5641,
      "##евич": 5642,
      "агентство": 5643,
      "финанси": 5644,
      "готовы": 5645,
      "Еди": 5646,
      "тюрь": 5647,
      "##тную": 5648,
      "семье": 5649,
      "плю": 5650,
      "голове": 5651,
      "сожал": 5652,
      "выборов": 5653,
      "##вец": 5654,
      "Благо": 5655,
      "##риаль": 5656,
      "Вен": 5657,
      "##щены": 5658,
      "мимо": 5659,
      "##зий": 5660,
      "##бина": 5661,
      "##лями": 5662,
      "выстав": 5663,
      "полков": 5664,
      "имуще": 5665,
      "188": 5666,
      "##женный": 5667,
      "противника": 5668,
      "Ря": 5669,
      "самостоя": 5670,
      "маги": 5671,
      "##зывают": 5672,
      "Тор": 5673,
      "ибо": 5674,
      "Источник": 5675,
      "Жу": 5676,
      "Значит": 5677,
      "органов": 5678,
      "произнес": 5679,
      "умень": 5680,
      "хле": 5681,
      "последнее": 5682,
      "жили": 5683,
      "сму": 5684,
      "спустя": 5685,
      "Послед": 5686,
      "##вому": 5687,
      "Петербурге": 5688,
      "фильма": 5689,
      "##ходе": 5690,
      "незна": 5691,
      "##тащи": 5692,
      "##гули": 5693,
      "Более": 5694,
      "упомина": 5695,
      "выборах": 5696,
      "пры": 5697,
      "Тер": 5698,
      "Вар": 5699,
      "оправ": 5700,
      "Основ": 5701,
      "##шко": 5702,
      "секун": 5703,
      "ука": 5704,
      "хотят": 5705,
      "Нам": 5706,
      "непосред": 5707,
      "разда": 5708,
      "##чим": 5709,
      "отря": 5710,
      "прото": 5711,
      "##стных": 5712,
      "позволяет": 5713,
      "знаете": 5714,
      "##гина": 5715,
      "края": 5716,
      "##бю": 5717,
      "##ешься": 5718,
      "бизне": 5719,
      "заявление": 5720,
      "приве": 5721,
      "##ждений": 5722,
      "запу": 5723,
      "##стям": 5724,
      "Кур": 5725,
      "хочешь": 5726,
      "адвока": 5727,
      "Владимира": 5728,
      "##тием": 5729,
      "лице": 5730,
      "война": 5731,
      "дороге": 5732,
      "Китай": 5733,
      "##няка": 5734,
      "##вана": 5735,
      "вышла": 5736,
      "##нит": 5737,
      "Соб": 5738,
      "Луган": 5739,
      "##чев": 5740,
      "потреб": 5741,
      "назвал": 5742,
      "Re": 5743,
      "какого": 5744,
      "2005": 5745,
      "##тик": 5746,
      "учени": 5747,
      "38": 5748,
      "монасты": 5749,
      "Петербурга": 5750,
      "говорили": 5751,
      "энергети": 5752,
      "##ваний": 5753,
      "кварта": 5754,
      "##россий": 5755,
      "Эй": 5756,
      "мысль": 5757,
      "содержи": 5758,
      "##тков": 5759,
      "воду": 5760,
      "правильно": 5761,
      "состояние": 5762,
      "##гий": 5763,
      "начало": 5764,
      "Навер": 5765,
      "дис": 5766,
      "отрица": 5767,
      "Али": 5768,
      "##мас": 5769,
      "##ul": 5770,
      "##щества": 5771,
      "крови": 5772,
      "машину": 5773,
      "##нских": 5774,
      "##кта": 5775,
      "Роб": 5776,
      "##__": 5777,
      "скон": 5778,
      "буква": 5779,
      "##дем": 5780,
      "кое": 5781,
      "грузо": 5782,
      "поступа": 5783,
      "поддержку": 5784,
      "дочь": 5785,
      "Ке": 5786,
      "##лега": 5787,
      "##няют": 5788,
      "востоке": 5789,
      "чере": 5790,
      "зас": 5791,
      "странах": 5792,
      "успел": 5793,
      "##ваем": 5794,
      "##дьми": 5795,
      "вижу": 5796,
      "кивнул": 5797,
      "большие": 5798,
      "чрез": 5799,
      "сезоне": 5800,
      "обеспечи": 5801,
      "вось": 5802,
      "ору": 5803,
      "##стье": 5804,
      "вернуться": 5805,
      "млад": 5806,
      "##ждён": 5807,
      "пройдет": 5808,
      "распростра": 5809,
      "преда": 5810,
      "провел": 5811,
      "оказалась": 5812,
      "шести": 5813,
      "##носи": 5814,
      "зве": 5815,
      "Кстати": 5816,
      "Тот": 5817,
      "могло": 5818,
      "далее": 5819,
      "большая": 5820,
      "чемпионате": 5821,
      "##бий": 5822,
      "крайней": 5823,
      "стары": 5824,
      "Луч": 5825,
      "##бера": 5826,
      "скан": 5827,
      "##стного": 5828,
      "##ющиеся": 5829,
      "##гор": 5830,
      "фами": 5831,
      "Вашинг": 5832,
      "##куро": 5833,
      "##ложил": 5834,
      "##щается": 5835,
      "##тников": 5836,
      "##стю": 5837,
      "##ard": 5838,
      "небе": 5839,
      "активи": 5840,
      "37": 5841,
      "возника": 5842,
      "абсолютно": 5843,
      "Дол": 5844,
      "понедель": 5845,
      "войне": 5846,
      "бывший": 5847,
      "##пенно": 5848,
      "##ложение": 5849,
      "чисто": 5850,
      "создать": 5851,
      "ввер": 5852,
      "главным": 5853,
      "лета": 5854,
      "горе": 5855,
      "##сные": 5856,
      "мужчины": 5857,
      "##зен": 5858,
      "паро": 5859,
      "моему": 5860,
      "поря": 5861,
      "улуч": 5862,
      "##сных": 5863,
      "##av": 5864,
      "Моло": 5865,
      "частью": 5866,
      "##писко": 5867,
      "добра": 5868,
      "экспери": 5869,
      "##говорил": 5870,
      "##щал": 5871,
      "внеза": 5872,
      "##ляли": 5873,
      "##СКА": 5874,
      "Петро": 5875,
      "комнату": 5876,
      "##роваться": 5877,
      "сайт": 5878,
      "бывает": 5879,
      "новости": 5880,
      "причем": 5881,
      "окружа": 5882,
      "гло": 5883,
      "##нодоро": 5884,
      "##мат": 5885,
      "Одна": 5886,
      "вод": 5887,
      "нашли": 5888,
      "186": 5889,
      "чему": 5890,
      "еха": 5891,
      "Даль": 5892,
      "бур": 5893,
      "потен": 5894,
      "кора": 5895,
      "##енок": 5896,
      "##щими": 5897,
      "председатель": 5898,
      "##ьми": 5899,
      "главе": 5900,
      "##шили": 5901,
      "бол": 5902,
      "Хи": 5903,
      "##щер": 5904,
      "Неу": 5905,
      "секретарь": 5906,
      "максима": 5907,
      "округа": 5908,
      "##цкий": 5909,
      "ладо": 5910,
      "брон": 5911,
      "понрави": 5912,
      "остался": 5913,
      "Меня": 5914,
      "##жая": 5915,
      "проходит": 5916,
      "##мия": 5917,
      "воскрес": 5918,
      "потребо": 5919,
      "выстре": 5920,
      "свободы": 5921,
      "рассмот": 5922,
      "Ника": 5923,
      "доба": 5924,
      "супру": 5925,
      "Жен": 5926,
      "хол": 5927,
      "##ктором": 5928,
      "насколько": 5929,
      "##рована": 5930,
      "последова": 5931,
      "##вшее": 5932,
      "##послед": 5933,
      "бор": 5934,
      "газета": 5935,
      "##щики": 5936,
      "наше": 5937,
      "75": 5938,
      "приходится": 5939,
      "##сей": 5940,
      "человеком": 5941,
      "разговор": 5942,
      "понятно": 5943,
      "развитие": 5944,
      "##тирует": 5945,
      "ву": 5946,
      "техники": 5947,
      "Сов": 5948,
      "масшта": 5949,
      "##лян": 5950,
      "баталь": 5951,
      "направлении": 5952,
      "ам": 5953,
      "##ходила": 5954,
      "Фили": 5955,
      "напомни": 5956,
      "##последствии": 5957,
      "форме": 5958,
      "акции": 5959,
      "Без": 5960,
      "ведомства": 5961,
      "сожалению": 5962,
      "говорю": 5963,
      "информация": 5964,
      "##тельств": 5965,
      "фра": 5966,
      "##ight": 5967,
      "сравнению": 5968,
      "конференции": 5969,
      "цена": 5970,
      "молоде": 5971,
      "голов": 5972,
      "2004": 5973,
      "думать": 5974,
      "миллиона": 5975,
      "переговоры": 5976,
      "##нале": 5977,
      "Союза": 5978,
      "выборы": 5979,
      "неприят": 5980,
      "##тило": 5981,
      "хуже": 5982,
      "##тря": 5983,
      "выпуска": 5984,
      "##бые": 5985,
      "банка": 5986,
      "многочислен": 5987,
      "##вето": 5988,
      "разби": 5989,
      "якобы": 5990,
      "исследования": 5991,
      "##ремя": 5992,
      "ез": 5993,
      "Тру": 5994,
      "##дный": 5995,
      "Республики": 5996,
      "обязательно": 5997,
      "пытался": 5998,
      "головы": 5999,
      "остальные": 6000,
      "##кет": 6001,
      "##ъек": 6002,
      "##op": 6003,
      "музе": 6004,
      "##пал": 6005,
      "##ляют": 6006,
      "XI": 6007,
      "стены": 6008,
      "Крыма": 6009,
      "Же": 6010,
      "результат": 6011,
      "сделали": 6012,
      "села": 6013,
      "##вшейся": 6014,
      "выступи": 6015,
      "##жат": 6016,
      "усили": 6017,
      "закончи": 6018,
      "испыты": 6019,
      "Th": 6020,
      "##бели": 6021,
      "Москву": 6022,
      "появилась": 6023,
      "хло": 6024,
      "##сё": 6025,
      "##wit": 6026,
      "российские": 6027,
      "появился": 6028,
      "води": 6029,
      "##груз": 6030,
      "##ческими": 6031,
      "развер": 6032,
      "бит": 6033,
      "##тических": 6034,
      "##ьев": 6035,
      "немед": 6036,
      "смотрел": 6037,
      "общей": 6038,
      "систему": 6039,
      "##тории": 6040,
      "187": 6041,
      "систем": 6042,
      "теря": 6043,
      "людьми": 6044,
      "редко": 6045,
      "нема": 6046,
      "должность": 6047,
      "##бви": 6048,
      "строительство": 6049,
      "##стую": 6050,
      "##лло": 6051,
      "сх": 6052,
      "##менте": 6053,
      "##брать": 6054,
      "необы": 6055,
      "##ус": 6056,
      "##начально": 6057,
      "кстати": 6058,
      "втором": 6059,
      "##сюда": 6060,
      "восемь": 6061,
      "новую": 6062,
      "большое": 6063,
      "контроли": 6064,
      "заместитель": 6065,
      "смысле": 6066,
      "Ники": 6067,
      "сотрудники": 6068,
      "##ванию": 6069,
      "середине": 6070,
      "Казах": 6071,
      "жители": 6072,
      "Украин": 6073,
      "стади": 6074,
      "узнать": 6075,
      "коль": 6076,
      "55": 6077,
      "пошел": 6078,
      "труда": 6079,
      "национальной": 6080,
      "требования": 6081,
      "##ложения": 6082,
      "первое": 6083,
      "##оборот": 6084,
      "санкции": 6085,
      "родился": 6086,
      "##кнула": 6087,
      "завое": 6088,
      "отличие": 6089,
      "курс": 6090,
      "необходимости": 6091,
      "##ьи": 6092,
      "мате": 6093,
      "##зой": 6094,
      "среду": 6095,
      "Рос": 6096,
      "Кана": 6097,
      "пришли": 6098,
      "Дело": 6099,
      "##клон": 6100,
      "пожи": 6101,
      "##кать": 6102,
      "молодой": 6103,
      "заявили": 6104,
      "напада": 6105,
      "напро": 6106,
      "##шал": 6107,
      "военного": 6108,
      "местных": 6109,
      "##стая": 6110,
      "##мену": 6111,
      "##мол": 6112,
      "острова": 6113,
      "возрасте": 6114,
      "выйти": 6115,
      "##all": 6116,
      "письмо": 6117,
      "главного": 6118,
      "##ці": 6119,
      "##ально": 6120,
      "закона": 6121,
      "строительства": 6122,
      "военные": 6123,
      "##фер": 6124,
      "##ченный": 6125,
      "мра": 6126,
      "здоро": 6127,
      "памяти": 6128,
      "очередной": 6129,
      "нефти": 6130,
      "##ждено": 6131,
      "##ід": 6132,
      "прекрасно": 6133,
      "множество": 6134,
      "шел": 6135,
      "особен": 6136,
      "##ap": 6137,
      "организова": 6138,
      "##стаи": 6139,
      "крайне": 6140,
      "домов": 6141,
      "кара": 6142,
      "регионе": 6143,
      "шах": 6144,
      "активно": 6145,
      "##ковых": 6146,
      "священ": 6147,
      "стоимость": 6148,
      "создания": 6149,
      "Свет": 6150,
      "мони": 6151,
      "борьбе": 6152,
      "библи": 6153,
      "эмо": 6154,
      "означает": 6155,
      "кан": 6156,
      "Смо": 6157,
      "дает": 6158,
      "каз": 6159,
      "##брал": 6160,
      "вариант": 6161,
      "космо": 6162,
      "Фин": 6163,
      "присоеди": 6164,
      "Великобритании": 6165,
      "опыт": 6166,
      "выбор": 6167,
      "интересно": 6168,
      "страну": 6169,
      "##менить": 6170,
      "сумму": 6171,
      "##ie": 6172,
      "украинских": 6173,
      "представляет": 6174,
      "комиссии": 6175,
      "жел": 6176,
      "##рованных": 6177,
      "роста": 6178,
      "##надцать": 6179,
      "##ково": 6180,
      "##нку": 6181,
      "лест": 6182,
      "Дени": 6183,
      "##чественной": 6184,
      "чтоб": 6185,
      "##мс": 6186,
      "конфликта": 6187,
      "##рной": 6188,
      "##зать": 6189,
      "защиты": 6190,
      "стратеги": 6191,
      "уголовное": 6192,
      "большую": 6193,
      "##ногие": 6194,
      "##диться": 6195,
      "Кан": 6196,
      "наша": 6197,
      "##тического": 6198,
      "религиоз": 6199,
      "боевых": 6200,
      "ЦСКА": 6201,
      "глуби": 6202,
      "аналоги": 6203,
      "##горе": 6204,
      "борьбы": 6205,
      "подру": 6206,
      "##ЧС": 6207,
      "##witter": 6208,
      "крова": 6209,
      "Виктор": 6210,
      "депутат": 6211,
      "хотела": 6212,
      "##лай": 6213,
      "##циони": 6214,
      "продолжал": 6215,
      "нефть": 6216,
      "электри": 6217,
      "агентства": 6218,
      "##чок": 6219,
      "##und": 6220,
      "оставля": 6221,
      "войну": 6222,
      "Сред": 6223,
      "##твор": 6224,
      "дорогу": 6225,
      "осве": 6226,
      "окку": 6227,
      "заинтересо": 6228,
      "искать": 6229,
      "улицы": 6230,
      "##ik": 6231,
      "значительно": 6232,
      "чаще": 6233,
      "публика": 6234,
      "службу": 6235,
      "рынка": 6236,
      "ваш": 6237,
      "сложи": 6238,
      "##ните": 6239,
      "Хри": 6240,
      "опол": 6241,
      "контракт": 6242,
      "повре": 6243,
      "##шены": 6244,
      "Геор": 6245,
      "Ната": 6246,
      "##жном": 6247,
      "##лиза": 6248,
      "препода": 6249,
      "которыми": 6250,
      "ликви": 6251,
      "лиш": 6252,
      "Зачем": 6253,
      "никого": 6254,
      "приняли": 6255,
      "##ина": 6256,
      "жесто": 6257,
      "Интерфакс": 6258,
      "##ub": 6259,
      "результаты": 6260,
      "неодно": 6261,
      "суббо": 6262,
      "теме": 6263,
      "неуда": 6264,
      "Европей": 6265,
      "##ьте": 6266,
      "##плуа": 6267,
      "##пах": 6268,
      "##вка": 6269,
      "трево": 6270,
      "смогли": 6271,
      "своё": 6272,
      "ответила": 6273,
      "рука": 6274,
      "##стых": 6275,
      "Зе": 6276,
      "##лне": 6277,
      "##чество": 6278,
      "th": 6279,
      "##зяй": 6280,
      "моих": 6281,
      "неё": 6282,
      "##ers": 6283,
      "Динамо": 6284,
      "железнодоро": 6285,
      "любви": 6286,
      "носи": 6287,
      "названием": 6288,
      "##нтов": 6289,
      "двадцать": 6290,
      "Крем": 6291,
      "капитан": 6292,
      "конец": 6293,
      "протяжении": 6294,
      "Шта": 6295,
      "самолета": 6296,
      "##кала": 6297,
      "верто": 6298,
      "продолжи": 6299,
      "##вос": 6300,
      "фоне": 6301,
      "выро": 6302,
      "##шено": 6303,
      "партия": 6304,
      "##чёт": 6305,
      "границы": 6306,
      "##лыми": 6307,
      "##стные": 6308,
      "предложение": 6309,
      "правило": 6310,
      "тонн": 6311,
      "##ллю": 6312,
      "владель": 6313,
      "##гин": 6314,
      "отношений": 6315,
      "нужен": 6316,
      "Олег": 6317,
      "планет": 6318,
      "компози": 6319,
      "##хождения": 6320,
      "топли": 6321,
      "##рена": 6322,
      "##ционе": 6323,
      "предна": 6324,
      "резер": 6325,
      "происше": 6326,
      "эпо": 6327,
      "ИГ": 6328,
      "понедельник": 6329,
      "##est": 6330,
      "##жащих": 6331,
      "##ляции": 6332,
      "государственного": 6333,
      "предостав": 6334,
      "##спекти": 6335,
      "новое": 6336,
      "##АС": 6337,
      "королев": 6338,
      "выдви": 6339,
      "работают": 6340,
      "поса": 6341,
      "##няли": 6342,
      "команд": 6343,
      "достав": 6344,
      "Сы": 6345,
      "языке": 6346,
      "входит": 6347,
      "рождения": 6348,
      "укреп": 6349,
      "каби": 6350,
      "подчи": 6351,
      "лагер": 6352,
      "командова": 6353,
      "Том": 6354,
      "Еги": 6355,
      "##лял": 6356,
      "числа": 6357,
      "##щает": 6358,
      "одному": 6359,
      "##дне": 6360,
      "ждать": 6361,
      "некоторое": 6362,
      "сос": 6363,
      "Джу": 6364,
      "##женные": 6365,
      "размер": 6366,
      "взрыв": 6367,
      "броси": 6368,
      "Бли": 6369,
      "знала": 6370,
      "##ссер": 6371,
      "звез": 6372,
      "вез": 6373,
      "##щено": 6374,
      "заслу": 6375,
      "мою": 6376,
      "Оде": 6377,
      "писал": 6378,
      "##ходило": 6379,
      "небо": 6380,
      "винов": 6381,
      "отка": 6382,
      "школе": 6383,
      "##нуло": 6384,
      "минуту": 6385,
      "Бен": 6386,
      "сопротив": 6387,
      "огня": 6388,
      "##кции": 6389,
      "счетом": 6390,
      "##ственную": 6391,
      "##рово": 6392,
      "##гистри": 6393,
      "последних": 6394,
      "пятницу": 6395,
      "парламента": 6396,
      "42": 6397,
      "##езде": 6398,
      "Тро": 6399,
      "##ровка": 6400,
      "##кратно": 6401,
      "##даль": 6402,
      "##такте": 6403,
      "Ch": 6404,
      "класса": 6405,
      "ниж": 6406,
      "вру": 6407,
      "смогут": 6408,
      "попал": 6409,
      "представить": 6410,
      "чувству": 6411,
      "света": 6412,
      "большим": 6413,
      "художе": 6414,
      "противопо": 6415,
      "документы": 6416,
      "село": 6417,
      "##льской": 6418,
      "титу": 6419,
      "мэ": 6420,
      "офице": 6421,
      "дога": 6422,
      "##мати": 6423,
      "справед": 6424,
      "собе": 6425,
      "##пку": 6426,
      "дож": 6427,
      "сквозь": 6428,
      "сор": 6429,
      "Генера": 6430,
      "коммуни": 6431,
      "сфере": 6432,
      "Думаю": 6433,
      "вслед": 6434,
      "руководство": 6435,
      "значение": 6436,
      "христиан": 6437,
      "сообщается": 6438,
      "Великой": 6439,
      "65": 6440,
      "сва": 6441,
      "фанта": 6442,
      "крити": 6443,
      "неожиданно": 6444,
      "##ляться": 6445,
      "слабо": 6446,
      "считать": 6447,
      "выска": 6448,
      "1941": 6449,
      "эфи": 6450,
      "лиде": 6451,
      "##КО": 6452,
      "##ственном": 6453,
      "пошли": 6454,
      "начать": 6455,
      "##стрее": 6456,
      "##ort": 6457,
      "молодо": 6458,
      "##спи": 6459,
      "похи": 6460,
      "##рай": 6461,
      "несо": 6462,
      "начальник": 6463,
      "2018": 6464,
      "прикры": 6465,
      "##редо": 6466,
      "предела": 6467,
      "осозна": 6468,
      "2001": 6469,
      "##еремо": 6470,
      "страна": 6471,
      "лейтен": 6472,
      "декабре": 6473,
      "нужны": 6474,
      "##ews": 6475,
      "алкого": 6476,
      "##роз": 6477,
      "##стка": 6478,
      "террористи": 6479,
      "каждой": 6480,
      "##нятно": 6481,
      "появились": 6482,
      "##вшими": 6483,
      "кух": 6484,
      "чувство": 6485,
      "зай": 6486,
      "шту": 6487,
      "##торые": 6488,
      "##ант": 6489,
      "1990": 6490,
      "записа": 6491,
      "обозна": 6492,
      "самоу": 6493,
      "##РО": 6494,
      "##йтесь": 6495,
      "машина": 6496,
      "##руя": 6497,
      "катастро": 6498,
      "участия": 6499,
      "русских": 6500,
      "языка": 6501,
      "нашел": 6502,
      "торже": 6503,
      "руководством": 6504,
      "издание": 6505,
      "россиян": 6506,
      "##льзова": 6507,
      "хочется": 6508,
      "территорию": 6509,
      "##хло": 6510,
      "семья": 6511,
      "##чув": 6512,
      "плат": 6513,
      "волосы": 6514,
      "48": 6515,
      "пак": 6516,
      "сентябре": 6517,
      "##цах": 6518,
      "состоит": 6519,
      "##ис": 6520,
      "Донбассе": 6521,
      "наступ": 6522,
      "вспомина": 6523,
      "##вершен": 6524,
      "Два": 6525,
      "души": 6526,
      "департа": 6527,
      "Тай": 6528,
      "пояснил": 6529,
      "##жите": 6530,
      "##льник": 6531,
      "150": 6532,
      "мел": 6533,
      "причин": 6534,
      "ред": 6535,
      "##ом": 6536,
      "ночи": 6537,
      "Фер": 6538,
      "##стера": 6539,
      "крепо": 6540,
      "деревня": 6541,
      "клиен": 6542,
      "поговори": 6543,
      "##жку": 6544,
      "организаций": 6545,
      "адрес": 6546,
      "законопроек": 6547,
      "соблю": 6548,
      "Наконец": 6549,
      "##рила": 6550,
      "##жён": 6551,
      "возму": 6552,
      "нарушения": 6553,
      "##вол": 6554,
      "голова": 6555,
      "россия": 6556,
      "карто": 6557,
      "январе": 6558,
      "Спе": 6559,
      "##жан": 6560,
      "Пусть": 6561,
      "Ок": 6562,
      "тему": 6563,
      "сты": 6564,
      "прием": 6565,
      "оке": 6566,
      "Ислам": 6567,
      "прошел": 6568,
      "##строи": 6569,
      "внес": 6570,
      "привет": 6571,
      "жив": 6572,
      "вероятно": 6573,
      "вопросов": 6574,
      "истре": 6575,
      "довер": 6576,
      "Нем": 6577,
      "Газпро": 6578,
      "Рай": 6579,
      "##сро": 6580,
      "##щений": 6581,
      "Юрий": 6582,
      "одо": 6583,
      "##фикации": 6584,
      "память": 6585,
      "##ak": 6586,
      "сообщения": 6587,
      "воздух": 6588,
      "##rue": 6589,
      "местах": 6590,
      "##несла": 6591,
      "Лондо": 6592,
      "выигра": 6593,
      "посту": 6594,
      "постепенно": 6595,
      "##циям": 6596,
      "##ленная": 6597,
      "правоохранитель": 6598,
      "##дятся": 6599,
      "##дания": 6600,
      "##льского": 6601,
      "остались": 6602,
      "##тники": 6603,
      "Народ": 6604,
      "военнослу": 6605,
      "кле": 6606,
      "фестива": 6607,
      "партий": 6608,
      "вышли": 6609,
      "##чают": 6610,
      "Авто": 6611,
      "эксплуа": 6612,
      "отказался": 6613,
      "буты": 6614,
      "бюджета": 6615,
      "экра": 6616,
      "вверх": 6617,
      "мама": 6618,
      "государственной": 6619,
      "жени": 6620,
      "концер": 6621,
      "разы": 6622,
      "испу": 6623,
      "любовь": 6624,
      "моби": 6625,
      "Эн": 6626,
      "Ат": 6627,
      "##бых": 6628,
      "штур": 6629,
      "третий": 6630,
      "бассе": 6631,
      "заниматься": 6632,
      "##юр": 6633,
      "цель": 6634,
      "2002": 6635,
      "Кре": 6636,
      "баш": 6637,
      "##енью": 6638,
      "общего": 6639,
      "тяж": 6640,
      "##лился": 6641,
      "Вален": 6642,
      "##тивы": 6643,
      "ров": 6644,
      "##тельном": 6645,
      "Кара": 6646,
      "Кли": 6647,
      "##емая": 6648,
      "размере": 6649,
      "44": 6650,
      "##лили": 6651,
      "значения": 6652,
      "##гнул": 6653,
      "последу": 6654,
      "39": 6655,
      "победы": 6656,
      "гвар": 6657,
      "смысл": 6658,
      "нужна": 6659,
      "Перед": 6660,
      "пропаган": 6661,
      "корпора": 6662,
      "МЧС": 6663,
      "начинает": 6664,
      "бывшего": 6665,
      "##нную": 6666,
      "Фу": 6667,
      "напи": 6668,
      "применя": 6669,
      "лицом": 6670,
      "##ненно": 6671,
      "пласти": 6672,
      "случаях": 6673,
      "##жом": 6674,
      "никакой": 6675,
      "##чений": 6676,
      "желание": 6677,
      "##мут": 6678,
      "##люб": 6679,
      "полной": 6680,
      "лен": 6681,
      "госпита": 6682,
      "юриди": 6683,
      "инци": 6684,
      "писто": 6685,
      "прика": 6686,
      "договори": 6687,
      "невы": 6688,
      "контроль": 6689,
      "400": 6690,
      "камер": 6691,
      "обслужи": 6692,
      "дя": 6693,
      "##леп": 6694,
      "сидел": 6695,
      "сказали": 6696,
      "вторник": 6697,
      "произошел": 6698,
      "переме": 6699,
      "существу": 6700,
      "коммер": 6701,
      "одер": 6702,
      "ресто": 6703,
      "взглядом": 6704,
      "статьи": 6705,
      "43": 6706,
      "41": 6707,
      "трудо": 6708,
      "должности": 6709,
      "помню": 6710,
      "встрече": 6711,
      "улыбнулся": 6712,
      "роман": 6713,
      "##Рѕ": 6714,
      "рук": 6715,
      "минимум": 6716,
      "Похо": 6717,
      "Украину": 6718,
      "находились": 6719,
      "Джор": 6720,
      "налого": 6721,
      "приста": 6722,
      "##кторов": 6723,
      "чувства": 6724,
      "четверг": 6725,
      "комнате": 6726,
      "завод": 6727,
      "президентом": 6728,
      "заму": 6729,
      "##сная": 6730,
      "производство": 6731,
      "здание": 6732,
      "видов": 6733,
      "ван": 6734,
      "обер": 6735,
      "##пок": 6736,
      "километров": 6737,
      "Газета": 6738,
      "банк": 6739,
      "##щины": 6740,
      "можешь": 6741,
      "рубля": 6742,
      "##жают": 6743,
      "официальный": 6744,
      "специально": 6745,
      "##зоб": 6746,
      "транс": 6747,
      "порядок": 6748,
      "вряд": 6749,
      "рынок": 6750,
      "зал": 6751,
      "бесе": 6752,
      "свете": 6753,
      "отдел": 6754,
      "прошли": 6755,
      "здра": 6756,
      "клавиа": 6757,
      "##кина": 6758,
      "вспы": 6759,
      "слышал": 6760,
      "предназна": 6761,
      "словами": 6762,
      "социальных": 6763,
      "победи": 6764,
      "##гка": 6765,
      "Мария": 6766,
      "сохран": 6767,
      "каком": 6768,
      "##берг": 6769,
      "##ИН": 6770,
      "санкций": 6771,
      "##щён": 6772,
      "##эт": 6773,
      "##цеп": 6774,
      "##жин": 6775,
      "ref": 6776,
      "марте": 6777,
      "##мотреть": 6778,
      "материалы": 6779,
      "разговари": 6780,
      "деше": 6781,
      "Италии": 6782,
      "##щаться": 6783,
      "доктор": 6784,
      "наук": 6785,
      "вашей": 6786,
      "эффектив": 6787,
      "Челове": 6788,
      "XX": 6789,
      "Фонтан": 6790,
      "характери": 6791,
      "##чало": 6792,
      "сирий": 6793,
      "##гон": 6794,
      "директора": 6795,
      "озе": 6796,
      "отношение": 6797,
      "сма": 6798,
      "самолет": 6799,
      "связь": 6800,
      "сведения": 6801,
      "##действия": 6802,
      "исключительно": 6803,
      "готови": 6804,
      "##зили": 6805,
      "употреб": 6806,
      "##туаль": 6807,
      "##ula": 6808,
      "Люди": 6809,
      "официально": 6810,
      "руководитель": 6811,
      "другую": 6812,
      "Было": 6813,
      "##ждает": 6814,
      "эко": 6815,
      "##зал": 6816,
      "беспла": 6817,
      "обстанов": 6818,
      "true": 6819,
      "слегка": 6820,
      "Евросо": 6821,
      "обре": 6822,
      "Григо": 6823,
      "мероприятия": 6824,
      "соглашения": 6825,
      "##жную": 6826,
      "режим": 6827,
      "небольшой": 6828,
      "видели": 6829,
      "системе": 6830,
      "Разве": 6831,
      "Белору": 6832,
      "пона": 6833,
      "первая": 6834,
      "хотели": 6835,
      "знают": 6836,
      "статье": 6837,
      "вопросам": 6838,
      "МОСК": 6839,
      "##вав": 6840,
      "библиоте": 6841,
      "оскор": 6842,
      "фору": 6843,
      "##ету": 6844,
      "##фикси": 6845,
      "##ёз": 6846,
      "Кер": 6847,
      "возглавля": 6848,
      "##скать": 6849,
      "подразде": 6850,
      "открыл": 6851,
      "##ань": 6852,
      "непло": 6853,
      "ног": 6854,
      "##льному": 6855,
      "индиви": 6856,
      "придума": 6857,
      "СП": 6858,
      "##вычай": 6859,
      "модели": 6860,
      "визи": 6861,
      "ГУ": 6862,
      "##нга": 6863,
      "##ьет": 6864,
      "корруп": 6865,
      "имели": 6866,
      "паци": 6867,
      "##ленным": 6868,
      "##стьян": 6869,
      "продви": 6870,
      "глядя": 6871,
      "подозрева": 6872,
      "учиты": 6873,
      "##щина": 6874,
      "государств": 6875,
      "##стый": 6876,
      "##читься": 6877,
      "##хозяй": 6878,
      "пусты": 6879,
      "команде": 6880,
      "устраи": 6881,
      "пройти": 6882,
      "Пожа": 6883,
      "процеду": 6884,
      "такими": 6885,
      "группе": 6886,
      "занимает": 6887,
      "кровь": 6888,
      "опусти": 6889,
      "##хии": 6890,
      "##лера": 6891,
      "##цар": 6892,
      "беско": 6893,
      "наси": 6894,
      "##кл": 6895,
      "Некоторые": 6896,
      "##ХЛ": 6897,
      "185": 6898,
      "био": 6899,
      "##тяги": 6900,
      "##чнее": 6901,
      "сериа": 6902,
      "учё": 6903,
      "##кей": 6904,
      "широко": 6905,
      "обстоятельства": 6906,
      "##ждая": 6907,
      "машин": 6908,
      "корабль": 6909,
      "похожи": 6910,
      "найден": 6911,
      "хотите": 6912,
      "##сел": 6913,
      "фла": 6914,
      "состава": 6915,
      "мило": 6916,
      "46": 6917,
      "##раясь": 6918,
      "МОСКВА": 6919,
      "минуты": 6920,
      "##етесь": 6921,
      "игре": 6922,
      "избран": 6923,
      "Экс": 6924,
      "объеди": 6925,
      "##рги": 6926,
      "Кам": 6927,
      "успоко": 6928,
      "##ведении": 6929,
      "Объ": 6930,
      "тка": 6931,
      "предъ": 6932,
      "сомне": 6933,
      "Ладно": 6934,
      "инфра": 6935,
      "животных": 6936,
      "предстоя": 6937,
      "автомобиль": 6938,
      "зарегистри": 6939,
      "ведет": 6940,
      "##туда": 6941,
      "##ФА": 6942,
      "отчет": 6943,
      "принимать": 6944,
      "##нями": 6945,
      "##мию": 6946,
      "выбира": 6947,
      "мае": 6948,
      "усме": 6949,
      "разум": 6950,
      "Эд": 6951,
      "##ваку": 6952,
      "арти": 6953,
      "атмос": 6954,
      "вдоль": 6955,
      "2003": 6956,
      "собесед": 6957,
      "##рили": 6958,
      "рот": 6959,
      "##ТП": 6960,
      "##жена": 6961,
      "he": 6962,
      "Син": 6963,
      "полномо": 6964,
      "Филип": 6965,
      "ассоциа": 6966,
      "пообе": 6967,
      "отдыха": 6968,
      "вступи": 6969,
      "режима": 6970,
      "##ставила": 6971,
      "Киеве": 6972,
      "груди": 6973,
      "гумани": 6974,
      "##льский": 6975,
      "парень": 6976,
      "прове": 6977,
      "знаком": 6978,
      "мора": 6979,
      "создание": 6980,
      "называется": 6981,
      "##pp": 6982,
      "##ниться": 6983,
      "подви": 6984,
      "население": 6985,
      "пребы": 6986,
      "УК": 6987,
      "##лайн": 6988,
      "подряд": 6989,
      "##our": 6990,
      "трёх": 6991,
      "приходилось": 6992,
      "##товой": 6993,
      "земля": 6994,
      "##барди": 6995,
      "##ИК": 6996,
      "состоится": 6997,
      "перспекти": 6998,
      "штраф": 6999,
      "Анто": 7000,
      "поднял": 7001,
      "##сив": 7002,
      "##енной": 7003,
      "относится": 7004,
      "##рэ": 7005,
      "перес": 7006,
      "вое": 7007,
      "осторожно": 7008,
      "крупных": 7009,
      "делают": 7010,
      "Многие": 7011,
      "##тех": 7012,
      "зависимости": 7013,
      "Англии": 7014,
      "юно": 7015,
      "Был": 7016,
      "счастли": 7017,
      "парламент": 7018,
      "РС": 7019,
      "альбо": 7020,
      "form": 7021,
      "##art": 7022,
      "влияние": 7023,
      "Вместе": 7024,
      "броса": 7025,
      "немедленно": 7026,
      "телеви": 7027,
      "Бог": 7028,
      "##вки": 7029,
      "шла": 7030,
      "##ал": 7031,
      "возраста": 7032,
      "проявля": 7033,
      "##хой": 7034,
      "Воро": 7035,
      "Ци": 7036,
      "деревя": 7037,
      "##ехала": 7038,
      "Кей": 7039,
      "##жало": 7040,
      "##кур": 7041,
      "решила": 7042,
      "##ющийся": 7043,
      "##рией": 7044,
      "##сках": 7045,
      "выхода": 7046,
      "##ab": 7047,
      "Ино": 7048,
      "терак": 7049,
      "турец": 7050,
      "Интере": 7051,
      "##СЕ": 7052,
      "Кубка": 7053,
      "достиг": 7054,
      "зафикси": 7055,
      "успеш": 7056,
      "сдел": 7057,
      "психи": 7058,
      "##ЭС": 7059,
      "стола": 7060,
      "Никто": 7061,
      "Яро": 7062,
      "противоре": 7063,
      "справи": 7064,
      "ВК": 7065,
      "Бела": 7066,
      "бежен": 7067,
      "предложения": 7068,
      "наслед": 7069,
      "Эль": 7070,
      "##бан": 7071,
      "переговоров": 7072,
      "политической": 7073,
      "труб": 7074,
      "Турции": 7075,
      "игр": 7076,
      "гарни": 7077,
      "угодно": 7078,
      "прогре": 7079,
      "повторя": 7080,
      "Московской": 7081,
      "семи": 7082,
      "днем": 7083,
      "графи": 7084,
      "##благо": 7085,
      "ключе": 7086,
      "очевид": 7087,
      "настоящий": 7088,
      "Петр": 7089,
      "ближе": 7090,
      "окна": 7091,
      "знали": 7092,
      "Особ": 7093,
      "##щению": 7094,
      "сельского": 7095,
      "Спи": 7096,
      "копи": 7097,
      "самая": 7098,
      "фронта": 7099,
      "##тном": 7100,
      "рубе": 7101,
      "собственной": 7102,
      "хими": 7103,
      "мело": 7104,
      "разбира": 7105,
      "##изво": 7106,
      "##чив": 7107,
      "противостоя": 7108,
      "фактически": 7109,
      "нашу": 7110,
      "зали": 7111,
      "убийства": 7112,
      "Зи": 7113,
      "едино": 7114,
      "##тические": 7115,
      "короля": 7116,
      "улыба": 7117,
      "наоборот": 7118,
      "поздно": 7119,
      "##зон": 7120,
      "дета": 7121,
      "газеты": 7122,
      "Евгений": 7123,
      "продукции": 7124,
      "апреле": 7125,
      "будущем": 7126,
      "объектов": 7127,
      "##фов": 7128,
      "розы": 7129,
      "накануне": 7130,
      "Бал": 7131,
      "зале": 7132,
      "##нений": 7133,
      "##ссию": 7134,
      "##гани": 7135,
      "An": 7136,
      "День": 7137,
      "##дует": 7138,
      "Sp": 7139,
      "ски": 7140,
      "##гают": 7141,
      "Павел": 7142,
      "##комменти": 7143,
      "ряда": 7144,
      "кно": 7145,
      "хво": 7146,
      "чемпион": 7147,
      "47": 7148,
      "моно": 7149,
      "##спорт": 7150,
      "серви": 7151,
      "августе": 7152,
      "##рите": 7153,
      "герцо": 7154,
      "Афри": 7155,
      "1999": 7156,
      "ваши": 7157,
      "велико": 7158,
      "бабу": 7159,
      "Анато": 7160,
      "депутатов": 7161,
      "погибших": 7162,
      "##гора": 7163,
      "поддержки": 7164,
      "##ula_": 7165,
      "##стром": 7166,
      "заставля": 7167,
      "вен": 7168,
      "доче": 7169,
      "городской": 7170,
      "##щением": 7171,
      "вете": 7172,
      "лес": 7173,
      "##реи": 7174,
      "Оп": 7175,
      "##жка": 7176,
      "Уи": 7177,
      "##ферен": 7178,
      "коне": 7179,
      "##тят": 7180,
      "formula_": 7181,
      "##чне": 7182,
      "зависит": 7183,
      "##зора": 7184,
      "жил": 7185,
      "возоб": 7186,
      "соответственно": 7187,
      "летом": 7188,
      "армия": 7189,
      "49": 7190,
      "##никах": 7191,
      "никому": 7192,
      "заседании": 7193,
      "##печа": 7194,
      "клад": 7195,
      "властей": 7196,
      "камен": 7197,
      "объявил": 7198,
      "Иль": 7199,
      "профи": 7200,
      "##зацию": 7201,
      "Отечественной": 7202,
      "Лит": 7203,
      "##логов": 7204,
      "опу": 7205,
      "воин": 7206,
      "##бороны": 7207,
      "##щихся": 7208,
      "согласился": 7209,
      "##сант": 7210,
      "трудом": 7211,
      "##БУ": 7212,
      "##нят": 7213,
      "члена": 7214,
      "приез": 7215,
      "приблизи": 7216,
      "прошла": 7217,
      "эпизо": 7218,
      "Ль": 7219,
      "губернатора": 7220,
      "скорость": 7221,
      "выдели": 7222,
      "ущер": 7223,
      "Коман": 7224,
      "Японии": 7225,
      "картин": 7226,
      "Вене": 7227,
      "Сначала": 7228,
      "ума": 7229,
      "##лел": 7230,
      "материалами": 7231,
      "называют": 7232,
      "##станции": 7233,
      "согласо": 7234,
      "##вере": 7235,
      "русского": 7236,
      "##ново": 7237,
      "чрезвычай": 7238,
      "отказыва": 7239,
      "дали": 7240,
      "рассу": 7241,
      "Сколько": 7242,
      "показал": 7243,
      "школу": 7244,
      "цело": 7245,
      "##ьера": 7246,
      "продолжает": 7247,
      "пришла": 7248,
      "украинской": 7249,
      "##if": 7250,
      "спро": 7251,
      "вои": 7252,
      "телефо": 7253,
      "ребенок": 7254,
      "##влека": 7255,
      "##мене": 7256,
      "зао": 7257,
      "идут": 7258,
      "леген": 7259,
      "скажу": 7260,
      "##ЕН": 7261,
      "пожар": 7262,
      "прокомменти": 7263,
      "нега": 7264,
      "автомобилей": 7265,
      "Бога": 7266,
      "въ": 7267,
      "##дры": 7268,
      "русский": 7269,
      "формы": 7270,
      "получается": 7271,
      "##лога": 7272,
      "цитирует": 7273,
      "##III": 7274,
      "управление": 7275,
      "##дая": 7276,
      "нечто": 7277,
      "##десят": 7278,
      "дыха": 7279,
      "##мся": 7280,
      "##канчи": 7281,
      "##стреми": 7282,
      "##пры": 7283,
      "Поз": 7284,
      "направления": 7285,
      "##редото": 7286,
      "Кажды": 7287,
      "##бая": 7288,
      "человеку": 7289,
      "шут": 7290,
      "столицы": 7291,
      "##лева": 7292,
      "##доби": 7293,
      "сей": 7294,
      "пишу": 7295,
      "перене": 7296,
      "прокуро": 7297,
      "##пля": 7298,
      "Само": 7299,
      "обли": 7300,
      "##тельными": 7301,
      "бесс": 7302,
      "перено": 7303,
      "Коло": 7304,
      "зару": 7305,
      "Михай": 7306,
      "Goo": 7307,
      "отмечается": 7308,
      "яви": 7309,
      "одинако": 7310,
      "председателя": 7311,
      "окончания": 7312,
      "##бах": 7313,
      "ответственность": 7314,
      "кана": 7315,
      "пау": 7316,
      "заби": 7317,
      "красно": 7318,
      "Наверное": 7319,
      "предусмот": 7320,
      "##фициаль": 7321,
      "начи": 7322,
      "Голо": 7323,
      "##тало": 7324,
      "наверняка": 7325,
      "##возгла": 7326,
      "Анна": 7327,
      "твой": 7328,
      "спря": 7329,
      "узнал": 7330,
      "##люби": 7331,
      "американских": 7332,
      "площад": 7333,
      "##ber": 7334,
      "сообра": 7335,
      "##нились": 7336,
      "##щика": 7337,
      "64": 7338,
      "любом": 7339,
      "талан": 7340,
      "откров": 7341,
      "##gle": 7342,
      "##СР": 7343,
      "##щество": 7344,
      "октябре": 7345,
      "##хнул": 7346,
      "пехо": 7347,
      "##йдут": 7348,
      "остальных": 7349,
      "##стоит": 7350,
      "52": 7351,
      "##мян": 7352,
      "церемо": 7353,
      "##рка": 7354,
      "люблю": 7355,
      "##рье": 7356,
      "##тана": 7357,
      "устанавли": 7358,
      "новым": 7359,
      "подозре": 7360,
      "индивиду": 7361,
      "спек": 7362,
      "реализации": 7363,
      "##ail": 7364,
      "феврале": 7365,
      "упал": 7366,
      "стрель": 7367,
      "девушки": 7368,
      "нужда": 7369,
      "мяч": 7370,
      "1945": 7371,
      "переи": 7372,
      "друзей": 7373,
      "путем": 7374,
      "Американ": 7375,
      "Мой": 7376,
      "имен": 7377,
      "песни": 7378,
      "сутки": 7379,
      "отсюда": 7380,
      "числен": 7381,
      "владе": 7382,
      "сотни": 7383,
      "##гром": 7384,
      "шоу": 7385,
      "##ило": 7386,
      "окончательно": 7387,
      "искусства": 7388,
      "Вой": 7389,
      "поможет": 7390,
      "мужи": 7391,
      "##енко": 7392,
      "очевидно": 7393,
      "привести": 7394,
      "##зами": 7395,
      "пожалуйста": 7396,
      "сезон": 7397,
      "автомобиля": 7398,
      "вес": 7399,
      "Представи": 7400,
      "Бор": 7401,
      "подошел": 7402,
      "достой": 7403,
      "##летел": 7404,
      "сбо": 7405,
      "инфраструк": 7406,
      "##комо": 7407,
      "диск": 7408,
      "городов": 7409,
      "лидера": 7410,
      "##оном": 7411,
      "обратился": 7412,
      "отсутствие": 7413,
      "отлича": 7414,
      "факту": 7415,
      "стояла": 7416,
      "турнира": 7417,
      "выру": 7418,
      "соедин": 7419,
      "уйти": 7420,
      "буквально": 7421,
      "предус": 7422,
      "51": 7423,
      "Трам": 7424,
      "##чность": 7425,
      "исте": 7426,
      "корабля": 7427,
      "составил": 7428,
      "ответственности": 7429,
      "Гон": 7430,
      "акт": 7431,
      "Лат": 7432,
      "##вига": 7433,
      "##ниями": 7434,
      "империи": 7435,
      "сел": 7436,
      "Оно": 7437,
      "лекар": 7438,
      "поняла": 7439,
      "лиги": 7440,
      "внимательно": 7441,
      "##дится": 7442,
      "плечами": 7443,
      "базе": 7444,
      "Каждый": 7445,
      "заявления": 7446,
      "##ствий": 7447,
      "эваку": 7448,
      "процесса": 7449,
      "пья": 7450,
      "лучших": 7451,
      "футболу": 7452,
      "живет": 7453,
      "##бую": 7454,
      "воспомина": 7455,
      "##май": 7456,
      "сути": 7457,
      "сформи": 7458,
      "##og": 7459,
      "консу": 7460,
      "силой": 7461,
      "раздра": 7462,
      "Муж": 7463,
      "##декс": 7464,
      "образование": 7465,
      "опубликован": 7466,
      "сильнее": 7467,
      "костю": 7468,
      "воскресенье": 7469,
      "##мма": 7470,
      "программ": 7471,
      "крае": 7472,
      "##дию": 7473,
      "##ъя": 7474,
      "водитель": 7475,
      "Ниж": 7476,
      "винова": 7477,
      "внутренних": 7478,
      "группу": 7479,
      "##сан": 7480,
      "##ордина": 7481,
      "гей": 7482,
      "быстрее": 7483,
      "использования": 7484,
      "Китая": 7485,
      "основной": 7486,
      "##вшем": 7487,
      "неделе": 7488,
      "##поле": 7489,
      "Сло": 7490,
      "вида": 7491,
      "заве": 7492,
      "gt": 7493,
      "прошед": 7494,
      "Лин": 7495,
      "##льм": 7496,
      "##энер": 7497,
      "След": 7498,
      "субъек": 7499,
      "##one": 7500,
      "трое": 7501,
      "Пло": 7502,
      "##тябрь": 7503,
      "новая": 7504,
      "Испании": 7505,
      "роз": 7506,
      "##монт": 7507,
      "начальника": 7508,
      "Донецкой": 7509,
      "ворота": 7510,
      "рабочих": 7511,
      "1944": 7512,
      "##ill": 7513,
      "водой": 7514,
      "##ist": 7515,
      "останов": 7516,
      "##обла": 7517,
      "международных": 7518,
      "##гнал": 7519,
      "столкнов": 7520,
      "причиной": 7521,
      "##ant": 7522,
      "##ментом": 7523,
      "ближайшее": 7524,
      "Бол": 7525,
      "восстанови": 7526,
      "##дной": 7527,
      "органы": 7528,
      "пассажиров": 7529,
      "компьютер": 7530,
      "Лен": 7531,
      "Кита": 7532,
      "спиной": 7533,
      "ДТП": 7534,
      "экономического": 7535,
      "##кут": 7536,
      "модель": 7537,
      "##ходу": 7538,
      "видела": 7539,
      "рим": 7540,
      "##руются": 7541,
      "кабин": 7542,
      "серьезно": 7543,
      "Маль": 7544,
      "Помимо": 7545,
      "##довой": 7546,
      "##зок": 7547,
      "##йдем": 7548,
      "строй": 7549,
      "##ведений": 7550,
      "восклик": 7551,
      "гим": 7552,
      "вторых": 7553,
      "болель": 7554,
      "идея": 7555,
      "##льности": 7556,
      "украинского": 7557,
      "голосом": 7558,
      "началась": 7559,
      "Це": 7560,
      "шли": 7561,
      "##ine": 7562,
      "завода": 7563,
      "опти": 7564,
      "Встре": 7565,
      "соору": 7566,
      "сделала": 7567,
      "внезапно": 7568,
      "##пиона": 7569,
      "подгото": 7570,
      "квадра": 7571,
      "##нья": 7572,
      "учили": 7573,
      "Ян": 7574,
      "охва": 7575,
      "примеру": 7576,
      "##рованный": 7577,
      "купить": 7578,
      "задума": 7579,
      "##дание": 7580,
      "##чко": 7581,
      "изви": 7582,
      "##стым": 7583,
      "последнего": 7584,
      "##новения": 7585,
      "июне": 7586,
      "поверхности": 7587,
      "душе": 7588,
      "документов": 7589,
      "разобра": 7590,
      "уте": 7591,
      "блоки": 7592,
      "миру": 7593,
      "Шар": 7594,
      "##ставив": 7595,
      "##чом": 7596,
      "селе": 7597,
      "задача": 7598,
      "зоне": 7599,
      "упра": 7600,
      "Олимпий": 7601,
      "сколь": 7602,
      "Золо": 7603,
      "##ВО": 7604,
      "##шит": 7605,
      "хро": 7606,
      "##шается": 7607,
      "ноябре": 7608,
      "кг": 7609,
      "издания": 7610,
      "вошли": 7611,
      "вода": 7612,
      "акций": 7613,
      "##вена": 7614,
      "борту": 7615,
      "##стане": 7616,
      "Вскоре": 7617,
      "ОБ": 7618,
      "##вёл": 7619,
      "Всё": 7620,
      "Дар": 7621,
      "субботу": 7622,
      "Мино": 7623,
      "случайно": 7624,
      "Генри": 7625,
      "общество": 7626,
      "##тни": 7627,
      "супер": 7628,
      "куп": 7629,
      "180": 7630,
      "провели": 7631,
      "попросил": 7632,
      "вед": 7633,
      "совеща": 7634,
      "отношению": 7635,
      "Чита": 7636,
      "уво": 7637,
      "стаби": 7638,
      "клет": 7639,
      "огля": 7640,
      "усилия": 7641,
      "##зировать": 7642,
      "Сергея": 7643,
      "удосто": 7644,
      "соли": 7645,
      "пунктов": 7646,
      "##влек": 7647,
      "уре": 7648,
      "преде": 7649,
      "##байд": 7650,
      "адре": 7651,
      "##весто": 7652,
      "самому": 7653,
      "потреби": 7654,
      "фер": 7655,
      "##пали": 7656,
      "этими": 7657,
      "поступ": 7658,
      "##зывая": 7659,
      "июле": 7660,
      "##дают": 7661,
      "православ": 7662,
      "##вами": 7663,
      "эн": 7664,
      "подели": 7665,
      "фаши": 7666,
      "обвинения": 7667,
      "очи": 7668,
      "др": 7669,
      "##вла": 7670,
      "##зербайд": 7671,
      "##леку": 7672,
      "##сор": 7673,
      "##льше": 7674,
      "ждет": 7675,
      "столице": 7676,
      "воспользова": 7677,
      "мужа": 7678,
      "Жа": 7679,
      "различные": 7680,
      "##образова": 7681,
      "##ллек": 7682,
      "##шись": 7683,
      "данном": 7684,
      "##стал": 7685,
      "заба": 7686,
      "##зовал": 7687,
      "столе": 7688,
      "неоднократно": 7689,
      "##змом": 7690,
      "хватает": 7691,
      "##ветов": 7692,
      "мистер": 7693,
      "##луб": 7694,
      "рассе": 7695,
      "очков": 7696,
      "старо": 7697,
      "##пили": 7698,
      "##сии": 7699,
      "организация": 7700,
      "плане": 7701,
      "##несли": 7702,
      "знаем": 7703,
      "##формы": 7704,
      "сосредото": 7705,
      "09": 7706,
      "проше": 7707,
      "голоса": 7708,
      "впоследствии": 7709,
      "##годно": 7710,
      "##слуша": 7711,
      "##жное": 7712,
      "##ликт": 7713,
      "любого": 7714,
      "##ллер": 7715,
      "часы": 7716,
      "истреби": 7717,
      "политических": 7718,
      "ушел": 7719,
      "##суаль": 7720,
      "III": 7721,
      "брата": 7722,
      "##йся": 7723,
      "члены": 7724,
      "нако": 7725,
      "надея": 7726,
      "тща": 7727,
      "окра": 7728,
      "еврей": 7729,
      "##мок": 7730,
      "пытается": 7731,
      "##тинг": 7732,
      "##шена": 7733,
      "##дные": 7734,
      "взрос": 7735,
      "Неужели": 7736,
      "договор": 7737,
      "Google": 7738,
      "щи": 7739,
      "требует": 7740,
      "##горо": 7741,
      "успешно": 7742,
      "бер": 7743,
      "##сятся": 7744,
      "##ленное": 7745,
      "революции": 7746,
      "##снова": 7747,
      "обру": 7748,
      "поспе": 7749,
      "позволит": 7750,
      "184": 7751,
      "##ровая": 7752,
      "##цкого": 7753,
      "познакоми": 7754,
      "бомбарди": 7755,
      "преодо": 7756,
      "нанес": 7757,
      "Вя": 7758,
      "##тиков": 7759,
      "яро": 7760,
      "##сное": 7761,
      "##жаться": 7762,
      "##нью": 7763,
      "##фона": 7764,
      "##няться": 7765,
      "провинции": 7766,
      "##енного": 7767,
      "воздуха": 7768,
      "показать": 7769,
      "превос": 7770,
      "двой": 7771,
      "##ленную": 7772,
      "##сена": 7773,
      "кисло": 7774,
      "подро": 7775,
      "Пути": 7776,
      "тура": 7777,
      "исполнитель": 7778,
      "гостей": 7779,
      "правил": 7780,
      "Белару": 7781,
      "Наи": 7782,
      "Греции": 7783,
      "позицию": 7784,
      "удержа": 7785,
      "единственный": 7786,
      "психологи": 7787,
      "говорила": 7788,
      "##тными": 7789,
      "1991": 7790,
      "связано": 7791,
      "En": 7792,
      "трансля": 7793,
      "##понен": 7794,
      "лабора": 7795,
      "Ага": 7796,
      "проводить": 7797,
      "матчей": 7798,
      "регули": 7799,
      "##емым": 7800,
      "##доволь": 7801,
      "облег": 7802,
      "количества": 7803,
      "##вера": 7804,
      "глубоко": 7805,
      "вернуть": 7806,
      "ворот": 7807,
      "##ссов": 7808,
      "стояли": 7809,
      "потря": 7810,
      "оттуда": 7811,
      "##рно": 7812,
      "##пустили": 7813,
      "либера": 7814,
      "мальчи": 7815,
      "##стный": 7816,
      "напол": 7817,
      "воспита": 7818,
      "назвать": 7819,
      "секунд": 7820,
      "Северной": 7821,
      "квартире": 7822,
      "предприятий": 7823,
      "книгу": 7824,
      "##АЗ": 7825,
      "##ровании": 7826,
      "##ционно": 7827,
      "53": 7828,
      "боли": 7829,
      "##пуск": 7830,
      "энергии": 7831,
      "бизнеса": 7832,
      "Един": 7833,
      "Воло": 7834,
      "деревни": 7835,
      "Насе": 7836,
      "собирается": 7837,
      "##зию": 7838,
      "регистра": 7839,
      "хороший": 7840,
      "##гри": 7841,
      "Ленинград": 7842,
      "боевиков": 7843,
      "##нутся": 7844,
      "##лию": 7845,
      "свы": 7846,
      "ступ": 7847,
      "планируется": 7848,
      "природ": 7849,
      "Йо": 7850,
      "выглядит": 7851,
      "музыкан": 7852,
      "странно": 7853,
      "серебря": 7854,
      "вмеша": 7855,
      "сопровожда": 7856,
      "Австра": 7857,
      "Итак": 7858,
      "st": 7859,
      "сообщение": 7860,
      "молодых": 7861,
      "##тельстве": 7862,
      "##цова": 7863,
      "будешь": 7864,
      "другому": 7865,
      "строго": 7866,
      "объем": 7867,
      "кладби": 7868,
      "качества": 7869,
      "Дне": 7870,
      "Шве": 7871,
      "членом": 7872,
      "главных": 7873,
      "Ван": 7874,
      "мыш": 7875,
      "русские": 7876,
      "дивизии": 7877,
      "зим": 7878,
      "науки": 7879,
      "напротив": 7880,
      "игроков": 7881,
      "прого": 7882,
      "##ходом": 7883,
      "поце": 7884,
      "церковь": 7885,
      "цивили": 7886,
      "1943": 7887,
      "коали": 7888,
      "56": 7889,
      "##рованные": 7890,
      "Несколько": 7891,
      "достоин": 7892,
      "получилось": 7893,
      "программа": 7894,
      "##тю": 7895,
      "##село": 7896,
      "столк": 7897,
      "##рович": 7898,
      "территориаль": 7899,
      "действовать": 7900,
      "пункта": 7901,
      "##дора": 7902,
      "считается": 7903,
      "табли": 7904,
      "поселения": 7905,
      "соглашение": 7906,
      "##серва": 7907,
      "социальной": 7908,
      "мусуль": 7909,
      "##ob": 7910,
      "##года": 7911,
      "договорен": 7912,
      "профессор": 7913,
      "исполни": 7914,
      "крестьян": 7915,
      "играл": 7916,
      "##мыслен": 7917,
      "сравни": 7918,
      "привлека": 7919,
      "партнер": 7920,
      "читать": 7921,
      "губы": 7922,
      "##лк": 7923,
      "нав": 7924,
      "##терна": 7925,
      "страхо": 7926,
      "отча": 7927,
      "расстре": 7928,
      "стена": 7929,
      "умира": 7930,
      "авиаком": 7931,
      "ООО": 7932,
      "пое": 7933,
      "##тацию": 7934,
      "миллиардов": 7935,
      "Обра": 7936,
      "рано": 7937,
      "определ": 7938,
      "##пин": 7939,
      "квали": 7940,
      "##рского": 7941,
      "еписко": 7942,
      "считаю": 7943,
      "гуманитар": 7944,
      "##рят": 7945,
      "объяснить": 7946,
      "городского": 7947,
      "программе": 7948,
      "петер": 7949,
      "Брю": 7950,
      "Петра": 7951,
      "услуг": 7952,
      "спасибо": 7953,
      "летнего": 7954,
      "Спорт": 7955,
      "##ly": 7956,
      "Бай": 7957,
      "Новый": 7958,
      "54": 7959,
      "транспорта": 7960,
      "##стки": 7961,
      "Вин": 7962,
      "встал": 7963,
      "показалось": 7964,
      "183": 7965,
      "Фри": 7966,
      "запро": 7967,
      "чёр": 7968,
      "##вяз": 7969,
      "дважды": 7970,
      "чай": 7971,
      "концу": 7972,
      "Ам": 7973,
      "любопы": 7974,
      "обеспечения": 7975,
      "кризиса": 7976,
      "Извест": 7977,
      "идеи": 7978,
      "местные": 7979,
      "##теры": 7980,
      "живут": 7981,
      "Институ": 7982,
      "прости": 7983,
      "de": 7984,
      "гне": 7985,
      "позднее": 7986,
      "факу": 7987,
      "##ллу": 7988,
      "правила": 7989,
      "партне": 7990,
      "принадлежит": 7991,
      "##тится": 7992,
      "ранены": 7993,
      "##тт": 7994,
      "##графии": 7995,
      "##неф": 7996,
      "гори": 7997,
      "##ld": 7998,
      "##шают": 7999,
      "ракеты": 8000,
      "торо": 8001,
      "уто": 8002,
      "поднялся": 8003,
      "##нё": 8004,
      "другая": 8005,
      "глупо": 8006,
      "##тировать": 8007,
      "##полу": 8008,
      "Рим": 8009,
      "оставить": 8010,
      "##нном": 8011,
      "Хан": 8012,
      "Леони": 8013,
      "сби": 8014,
      "хватит": 8015,
      "номе": 8016,
      "предусматри": 8017,
      "следствия": 8018,
      "##ковского": 8019,
      "принес": 8020,
      "осла": 8021,
      "механи": 8022,
      "подготовки": 8023,
      "Сара": 8024,
      "##шкин": 8025,
      "проверки": 8026,
      "сосе": 8027,
      "концеп": 8028,
      "попытки": 8029,
      "##ЕР": 8030,
      "больших": 8031,
      "Тю": 8032,
      "полном": 8033,
      "выр": 8034,
      "бросил": 8035,
      "снаря": 8036,
      "делам": 8037,
      "каждом": 8038,
      "доли": 8039,
      "##сыла": 8040,
      "тря": 8041,
      "##кол": 8042,
      "Нов": 8043,
      "искрен": 8044,
      "впло": 8045,
      "Лиги": 8046,
      "подобные": 8047,
      "статус": 8048,
      "през": 8049,
      "руке": 8050,
      "отклю": 8051,
      "проник": 8052,
      "##довали": 8053,
      "##жима": 8054,
      "сюжет": 8055,
      "##ландии": 8056,
      "Лав": 8057,
      "верно": 8058,
      "Ей": 8059,
      "полуо": 8060,
      "##ец": 8061,
      "##няются": 8062,
      "Особенно": 8063,
      "обеспечить": 8064,
      "обма": 8065,
      "побы": 8066,
      "мон": 8067,
      "ремон": 8068,
      "Больше": 8069,
      "##вард": 8070,
      "основных": 8071,
      "солнце": 8072,
      "сверху": 8073,
      "квартиры": 8074,
      "посред": 8075,
      "##вёр": 8076,
      "попытался": 8077,
      "##БК": 8078,
      "фонда": 8079,
      "причине": 8080,
      "##ляются": 8081,
      "мисси": 8082,
      "##рат": 8083,
      "политика": 8084,
      "благодар": 8085,
      "новостями": 8086,
      "колон": 8087,
      "зага": 8088,
      "свидете": 8089,
      "##дала": 8090,
      "Причем": 8091,
      "Тебе": 8092,
      "полка": 8093,
      "веке": 8094,
      "Запа": 8095,
      "Тран": 8096,
      "рассказала": 8097,
      "прино": 8098,
      "промышленности": 8099,
      "повтор": 8100,
      "погру": 8101,
      "известный": 8102,
      "уве": 8103,
      "совместно": 8104,
      "соц": 8105,
      "дочери": 8106,
      "Соедин": 8107,
      "Иванов": 8108,
      "выходит": 8109,
      "##жается": 8110,
      "Другие": 8111,
      "##дишь": 8112,
      "##ковые": 8113,
      "Вз": 8114,
      "территория": 8115,
      "##ковский": 8116,
      "##служ": 8117,
      "комнаты": 8118,
      "заказ": 8119,
      "нашим": 8120,
      "##рился": 8121,
      "останется": 8122,
      "##тк": 8123,
      "##баты": 8124,
      "смотри": 8125,
      "замер": 8126,
      "вск": 8127,
      "неви": 8128,
      "большого": 8129,
      "расти": 8130,
      "грудь": 8131,
      "приме": 8132,
      "##ian": 8133,
      "##зила": 8134,
      "знак": 8135,
      "испа": 8136,
      "сверх": 8137,
      "##тический": 8138,
      "социали": 8139,
      "Al": 8140,
      "подобных": 8141,
      "будущее": 8142,
      "старший": 8143,
      "Сво": 8144,
      "##твори": 8145,
      "господин": 8146,
      "иллю": 8147,
      "воспринима": 8148,
      "делега": 8149,
      "настаи": 8150,
      "##мите": 8151,
      "заканчи": 8152,
      "предоставля": 8153,
      "57": 8154,
      "##голов": 8155,
      "##тли": 8156,
      "1998": 8157,
      "ВС": 8158,
      "##ченной": 8159,
      "Откры": 8160,
      "бла": 8161,
      "кофе": 8162,
      "губернатор": 8163,
      "орби": 8164,
      "участок": 8165,
      "Лука": 8166,
      "отметить": 8167,
      "отделения": 8168,
      "ано": 8169,
      "##душ": 8170,
      "ход": 8171,
      "##риев": 8172,
      "несчаст": 8173,
      "русской": 8174,
      "посвящен": 8175,
      "видит": 8176,
      "Дер": 8177,
      "родителей": 8178,
      "гряз": 8179,
      "Доро": 8180,
      "зелены": 8181,
      "пытаясь": 8182,
      "##роятно": 8183,
      "Главный": 8184,
      "пожела": 8185,
      "впечатление": 8186,
      "##береж": 8187,
      "нашем": 8188,
      "XIX": 8189,
      "##дю": 8190,
      "убить": 8191,
      "##куп": 8192,
      "хокке": 8193,
      "онлайн": 8194,
      "##ters": 8195,
      "американской": 8196,
      "181": 8197,
      "большей": 8198,
      "##сова": 8199,
      "положения": 8200,
      "обнаружили": 8201,
      "американский": 8202,
      "жду": 8203,
      "уника": 8204,
      "вку": 8205,
      "института": 8206,
      "машине": 8207,
      "##блу": 8208,
      "воздухе": 8209,
      "Управ": 8210,
      "оставил": 8211,
      "сэр": 8212,
      "штаб": 8213,
      "58": 8214,
      "сена": 8215,
      "комплекс": 8216,
      "многое": 8217,
      "граф": 8218,
      "##дли": 8219,
      "подпи": 8220,
      "образу": 8221,
      "Жан": 8222,
      "однажды": 8223,
      "кожа": 8224,
      "Шо": 8225,
      "ею": 8226,
      "американского": 8227,
      "пойти": 8228,
      "молод": 8229,
      "##шенной": 8230,
      "местного": 8231,
      "##рено": 8232,
      "01": 8233,
      "##действие": 8234,
      "вар": 8235,
      "кот": 8236,
      "отоз": 8237,
      "составила": 8238,
      "происшествия": 8239,
      "флота": 8240,
      "##сибир": 8241,
      "##манов": 8242,
      "оза": 8243,
      "##тивным": 8244,
      "##ровой": 8245,
      "##крови": 8246,
      "инициати": 8247,
      "делал": 8248,
      "Роди": 8249,
      "изготов": 8250,
      "готова": 8251,
      "##рованной": 8252,
      "##тельством": 8253,
      "программу": 8254,
      "##чины": 8255,
      "переписи": 8256,
      "Чар": 8257,
      "текст": 8258,
      "попасть": 8259,
      "остаться": 8260,
      "справ": 8261,
      "свыше": 8262,
      "будете": 8263,
      "журналистам": 8264,
      "ваше": 8265,
      "контроля": 8266,
      "прибыли": 8267,
      "##лимпиа": 8268,
      "прочита": 8269,
      "##ord": 8270,
      "парти": 8271,
      "силами": 8272,
      "отправился": 8273,
      "##зовали": 8274,
      "солне": 8275,
      "##ran": 8276,
      "собственно": 8277,
      "деревне": 8278,
      "участвовал": 8279,
      "конститу": 8280,
      "##чью": 8281,
      "маленький": 8282,
      "марки": 8283,
      "чемпионат": 8284,
      "писать": 8285,
      "оказывается": 8286,
      "сердца": 8287,
      "Тол": 8288,
      "##тел": 8289,
      "блок": 8290,
      "Сен": 8291,
      "корпуса": 8292,
      "##ведён": 8293,
      "испыта": 8294,
      "затра": 8295,
      "случаев": 8296,
      "девочка": 8297,
      "нев": 8298,
      "бук": 8299,
      "журнала": 8300,
      "##рас": 8301,
      "диску": 8302,
      "патрио": 8303,
      "бал": 8304,
      "Прем": 8305,
      "плате": 8306,
      "диза": 8307,
      "содержит": 8308,
      "Pr": 8309,
      "конц": 8310,
      "##валь": 8311,
      "штаба": 8312,
      "Bl": 8313,
      "выпуск": 8314,
      "##шенных": 8315,
      "##эта": 8316,
      "##жие": 8317,
      "##словно": 8318,
      "посмотри": 8319,
      "впереди": 8320,
      "речи": 8321,
      "приказ": 8322,
      "любит": 8323,
      "резо": 8324,
      "##тино": 8325,
      "Вообще": 8326,
      "инвесто": 8327,
      "король": 8328,
      "выдержа": 8329,
      "##вшему": 8330,
      "##метров": 8331,
      "прили": 8332,
      "введен": 8333,
      "экспеди": 8334,
      "бен": 8335,
      "глоба": 8336,
      "фотографии": 8337,
      "огра": 8338,
      "моим": 8339,
      "##рн": 8340,
      "Пара": 8341,
      "неправи": 8342,
      "нечего": 8343,
      "актри": 8344,
      "охран": 8345,
      "запол": 8346,
      "рису": 8347,
      "Стре": 8348,
      "нём": 8349,
      "##совет": 8350,
      "##леть": 8351,
      "граду": 8352,
      "остановился": 8353,
      "видом": 8354,
      "жены": 8355,
      "лицен": 8356,
      "класс": 8357,
      "Twitter": 8358,
      "заплани": 8359,
      "ветер": 8360,
      "наступа": 8361,
      "целый": 8362,
      "##жность": 8363,
      "моги": 8364,
      "действие": 8365,
      "кула": 8366,
      "планы": 8367,
      "##стся": 8368,
      "зв": 8369,
      "занял": 8370,
      "громко": 8371,
      "взры": 8372,
      "##дации": 8373,
      "Такое": 8374,
      "будь": 8375,
      "ответа": 8376,
      "хозяйства": 8377,
      "##тари": 8378,
      "ребята": 8379,
      "Иногда": 8380,
      "Южной": 8381,
      "Харь": 8382,
      "##чками": 8383,
      "##рованию": 8384,
      "##др": 8385,
      "##чее": 8386,
      "##вия": 8387,
      "взор": 8388,
      "##даго": 8389,
      "##вающих": 8390,
      "Гарри": 8391,
      "траге": 8392,
      "пан": 8393,
      "следующем": 8394,
      "##фт": 8395,
      "пога": 8396,
      "Обы": 8397,
      "избежать": 8398,
      "письма": 8399,
      "конфликт": 8400,
      "##нете": 8401,
      "##лят": 8402,
      "робо": 8403,
      "пита": 8404,
      "Уни": 8405,
      "собо": 8406,
      "последствия": 8407,
      "убийство": 8408,
      "стрелко": 8409,
      "ФС": 8410,
      "участием": 8411,
      "потра": 8412,
      "взяли": 8413,
      "Цер": 8414,
      "факульт": 8415,
      "дура": 8416,
      "Сочи": 8417,
      "архитек": 8418,
      "рассказывает": 8419,
      "утро": 8420,
      "выступления": 8421,
      "зарубе": 8422,
      "##менов": 8423,
      "ул": 8424,
      "исследований": 8425,
      "пространство": 8426,
      "Джек": 8427,
      "мель": 8428,
      "Нужно": 8429,
      "потери": 8430,
      "Аф": 8431,
      "##рг": 8432,
      "скри": 8433,
      "поя": 8434,
      "оты": 8435,
      "Киева": 8436,
      "почувствовал": 8437,
      "Вита": 8438,
      "Высо": 8439,
      "##стное": 8440,
      "полиция": 8441,
      "Тихо": 8442,
      "гиган": 8443,
      "полный": 8444,
      "Кири": 8445,
      "Тра": 8446,
      "подписал": 8447,
      "скорости": 8448,
      "пытались": 8449,
      "Какой": 8450,
      "##ep": 8451,
      "недель": 8452,
      "признал": 8453,
      "высказыва": 8454,
      "восьми": 8455,
      "окно": 8456,
      "1992": 8457,
      "Население": 8458,
      "Сау": 8459,
      "Союз": 8460,
      "##ій": 8461,
      "##тельству": 8462,
      "##РФ": 8463,
      "##ost": 8464,
      "пило": 8465,
      "зоны": 8466,
      "##водить": 8467,
      "четыр": 8468,
      "##хла": 8469,
      "альбом": 8470,
      "окре": 8471,
      "станов": 8472,
      "населён": 8473,
      "передачи": 8474,
      "прояви": 8475,
      "отдельных": 8476,
      "усмех": 8477,
      "##ив": 8478,
      "чемпионов": 8479,
      "справедливо": 8480,
      "##вку": 8481,
      "статистикой": 8482,
      "посоль": 8483,
      "##мур": 8484,
      "высокой": 8485,
      "##ритет": 8486,
      "продажи": 8487,
      "##мили": 8488,
      "##дец": 8489,
      "Мир": 8490,
      "прока": 8491,
      "Пан": 8492,
      "девять": 8493,
      "получения": 8494,
      "дальнейшем": 8495,
      "подтвердил": 8496,
      "##тров": 8497,
      "Егип": 8498,
      "чуде": 8499,
      "начинается": 8500,
      "нормально": 8501,
      "##литься": 8502,
      "комплекса": 8503,
      "##ell": 8504,
      "Свер": 8505,
      "1942": 8506,
      "национали": 8507,
      "##тав": 8508,
      "фрак": 8509,
      "эска": 8510,
      "высказа": 8511,
      "Стар": 8512,
      "Конститу": 8513,
      "Антон": 8514,
      "##кле": 8515,
      "Много": 8516,
      "Вас": 8517,
      "вор": 8518,
      "##женной": 8519,
      "Тимо": 8520,
      "##нье": 8521,
      "призы": 8522,
      "пойма": 8523,
      "##ждению": 8524,
      "##центра": 8525,
      "смени": 8526,
      "ВВС": 8527,
      "голосов": 8528,
      "энерги": 8529,
      "##ct": 8530,
      "ответить": 8531,
      "среднем": 8532,
      "опубликова": 8533,
      "##воо": 8534,
      "08": 8535,
      "нефте": 8536,
      "##нилась": 8537,
      "Париже": 8538,
      "честно": 8539,
      "Подо": 8540,
      "последней": 8541,
      "вошел": 8542,
      "##дняя": 8543,
      "Лей": 8544,
      "##чете": 8545,
      "##шеб": 8546,
      "препара": 8547,
      "останавли": 8548,
      "миллиарда": 8549,
      "вкус": 8550,
      "Роман": 8551,
      "командир": 8552,
      "уголовного": 8553,
      "белорус": 8554,
      "началось": 8555,
      "заранее": 8556,
      "корреспонден": 8557,
      "главной": 8558,
      "##теров": 8559,
      "##верил": 8560,
      "союза": 8561,
      "обвиня": 8562,
      "##фом": 8563,
      "минима": 8564,
      "проектов": 8565,
      "##тение": 8566,
      "родители": 8567,
      "оформ": 8568,
      "карьеру": 8569,
      "Te": 8570,
      "улицу": 8571,
      "отдель": 8572,
      "проще": 8573,
      "бассей": 8574,
      "беспоко": 8575,
      "задачи": 8576,
      "1980": 8577,
      "##пать": 8578,
      "Крыму": 8579,
      "##тство": 8580,
      "остров": 8581,
      "Позже": 8582,
      "сухо": 8583,
      "##льность": 8584,
      "горы": 8585,
      "спасти": 8586,
      "сила": 8587,
      "спать": 8588,
      "##бай": 8589,
      "действует": 8590,
      "##зился": 8591,
      "позволи": 8592,
      "сохранить": 8593,
      "##СТ": 8594,
      "ориенти": 8595,
      "сетях": 8596,
      "припо": 8597,
      "Город": 8598,
      "городах": 8599,
      "Эк": 8600,
      "Госдумы": 8601,
      "забил": 8602,
      "интересу": 8603,
      "##гала": 8604,
      "комитет": 8605,
      "фильме": 8606,
      "##вица": 8607,
      "государственных": 8608,
      "отлично": 8609,
      "##under": 8610,
      "Бере": 8611,
      "япон": 8612,
      "одни": 8613,
      "израи": 8614,
      "услов": 8615,
      "шум": 8616,
      "пункт": 8617,
      "военный": 8618,
      "участники": 8619,
      "##ge": 8620,
      "расследование": 8621,
      "Борис": 8622,
      "процессе": 8623,
      "обез": 8624,
      "опер": 8625,
      "книг": 8626,
      "вело": 8627,
      "id": 8628,
      "##ейс": 8629,
      "взяла": 8630,
      "дово": 8631,
      "##чис": 8632,
      "##зион": 8633,
      "выступил": 8634,
      "условий": 8635,
      "насла": 8636,
      "##ился": 8637,
      "##торами": 8638,
      "##бки": 8639,
      "ке": 8640,
      "Америки": 8641,
      "половине": 8642,
      "обоих": 8643,
      "Зу": 8644,
      "##жим": 8645,
      "побереж": 8646,
      "происходя": 8647,
      "ОАО": 8648,
      "85": 8649,
      "фин": 8650,
      "решить": 8651,
      "добиться": 8652,
      "технологии": 8653,
      "перевоз": 8654,
      "##дных": 8655,
      "##лат": 8656,
      "##енса": 8657,
      "##зне": 8658,
      "международного": 8659,
      "Фло": 8660,
      "##фии": 8661,
      "столом": 8662,
      "пля": 8663,
      "корреспондент": 8664,
      "##кель": 8665,
      "утверждает": 8666,
      "##жнее": 8667,
      "Груп": 8668,
      "наци": 8669,
      "##АТ": 8670,
      "намного": 8671,
      "имена": 8672,
      "Акаде": 8673,
      "1996": 8674,
      "мото": 8675,
      "дорогой": 8676,
      "упомя": 8677,
      "фана": 8678,
      "банки": 8679,
      "Сама": 8680,
      "основании": 8681,
      "##такт": 8682,
      "КПРФ": 8683,
      "разъ": 8684,
      "бир": 8685,
      "обнов": 8686,
      "Человек": 8687,
      "Орга": 8688,
      "режиме": 8689,
      "делом": 8690,
      "##ял": 8691,
      "экономической": 8692,
      "страшно": 8693,
      "рекон": 8694,
      "возро": 8695,
      "Швей": 8696,
      "шка": 8697,
      "создании": 8698,
      "##ологии": 8699,
      "59": 8700,
      "произошла": 8701,
      "##ind": 8702,
      "литератур": 8703,
      "опровер": 8704,
      "##дерни": 8705,
      "ходу": 8706,
      "рестора": 8707,
      "самостоятельно": 8708,
      "мальчик": 8709,
      "играет": 8710,
      "##мыми": 8711,
      "отметили": 8712,
      "##тивное": 8713,
      "поговорить": 8714,
      "премии": 8715,
      "естественно": 8716,
      "Оче": 8717,
      "вино": 8718,
      "дают": 8719,
      "Вне": 8720,
      "##хам": 8721,
      "беспокой": 8722,
      "##тивная": 8723,
      "квартиру": 8724,
      "второе": 8725,
      "поставить": 8726,
      "##гона": 8727,
      "присво": 8728,
      "##вик": 8729,
      "причины": 8730,
      "1994": 8731,
      "##женного": 8732,
      "Уилья": 8733,
      "Сева": 8734,
      "##ровался": 8735,
      "торговли": 8736,
      "выступал": 8737,
      "артилле": 8738,
      "Ольга": 8739,
      "##жными": 8740,
      "регионов": 8741,
      "##21": 8742,
      "специалистов": 8743,
      "##мане": 8744,
      "сило": 8745,
      "Азии": 8746,
      "##щенко": 8747,
      "##tt": 8748,
      "урегули": 8749,
      "подразделения": 8750,
      "сбе": 8751,
      "1997": 8752,
      "увидела": 8753,
      "##женно": 8754,
      "поставил": 8755,
      "##отно": 8756,
      "Деву": 8757,
      "занимается": 8758,
      "Информа": 8759,
      "руба": 8760,
      "вздохнул": 8761,
      "гибели": 8762,
      "Зато": 8763,
      "астро": 8764,
      "групп": 8765,
      "дев": 8766,
      "Василий": 8767,
      "кораблей": 8768,
      "описы": 8769,
      "инженер": 8770,
      "##стон": 8771,
      "##шали": 8772,
      "поражение": 8773,
      "ЛНР": 8774,
      "кризис": 8775,
      "планирует": 8776,
      "##ИЛ": 8777,
      "рассказали": 8778,
      "писатель": 8779,
      "блю": 8780,
      "##сье": 8781,
      "восхи": 8782,
      "##товых": 8783,
      "взрыва": 8784,
      "Медведев": 8785,
      "правления": 8786,
      "спектак": 8787,
      "ограничи": 8788,
      "##ваете": 8789,
      "лидеров": 8790,
      "##лябин": 8791,
      "Кру": 8792,
      "##стен": 8793,
      "кло": 8794,
      "данной": 8795,
      "европейских": 8796,
      "брю": 8797,
      "##лана": 8798,
      "гол": 8799,
      "индивидуаль": 8800,
      "сига": 8801,
      "##ft": 8802,
      "теории": 8803,
      "подвод": 8804,
      "##жий": 8805,
      "живу": 8806,
      "осталась": 8807,
      "##поте": 8808,
      "курса": 8809,
      "око": 8810,
      "##лести": 8811,
      "коммуна": 8812,
      "##мить": 8813,
      "препят": 8814,
      "##жур": 8815,
      "смогла": 8816,
      "везде": 8817,
      "нерв": 8818,
      "##менту": 8819,
      "сан": 8820,
      "процента": 8821,
      "педаго": 8822,
      "привез": 8823,
      "##стики": 8824,
      "Ву": 8825,
      "##рены": 8826,
      "Гали": 8827,
      "установить": 8828,
      "##юк": 8829,
      "##всегда": 8830,
      "районах": 8831,
      "записи": 8832,
      "непосредственно": 8833,
      "трак": 8834,
      "чувствовал": 8835,
      "##ющему": 8836,
      "звер": 8837,
      "##пред": 8838,
      "Ростов": 8839,
      "соеди": 8840,
      "изобре": 8841,
      "пояс": 8842,
      "##новский": 8843,
      "##сылки": 8844,
      "университет": 8845,
      "##вшаяся": 8846,
      "120": 8847,
      "разво": 8848,
      "политике": 8849,
      "координа": 8850,
      "вопроса": 8851,
      "РБК": 8852,
      "желе": 8853,
      "нож": 8854,
      "избави": 8855,
      "папа": 8856,
      "огне": 8857,
      "##мби": 8858,
      "##стным": 8859,
      "Минобороны": 8860,
      "шай": 8861,
      "лежит": 8862,
      "##ковым": 8863,
      "Луи": 8864,
      "##чук": 8865,
      "помимо": 8866,
      "пошла": 8867,
      "##стской": 8868,
      "будущего": 8869,
      "Разу": 8870,
      "##лланд": 8871,
      "##ждены": 8872,
      "товаров": 8873,
      "Белоруссии": 8874,
      "Чего": 8875,
      "состоянию": 8876,
      "потерял": 8877,
      "мгновение": 8878,
      "##НО": 8879,
      "##сек": 8880,
      "Патри": 8881,
      "тамо": 8882,
      "проверить": 8883,
      "стихи": 8884,
      "##бым": 8885,
      "режисс": 8886,
      "работали": 8887,
      "##ционная": 8888,
      "бата": 8889,
      "герои": 8890,
      "книге": 8891,
      "##петь": 8892,
      "##ственными": 8893,
      "Елена": 8894,
      "уху": 8895,
      "материал": 8896,
      "периода": 8897,
      "##летия": 8898,
      "##сев": 8899,
      "прояв": 8900,
      "расследования": 8901,
      "душу": 8902,
      "дворе": 8903,
      "сексуаль": 8904,
      "##рель": 8905,
      "старый": 8906,
      "нефтя": 8907,
      "интересы": 8908,
      "картины": 8909,
      "##пка": 8910,
      "Мол": 8911,
      "Татья": 8912,
      "украинские": 8913,
      "##сий": 8914,
      "скром": 8915,
      "предстоит": 8916,
      "##грав": 8917,
      "яй": 8918,
      "постара": 8919,
      "аэропорта": 8920,
      "зерка": 8921,
      "##бен": 8922,
      "##мова": 8923,
      "##чён": 8924,
      "перевод": 8925,
      "проспек": 8926,
      "Интересно": 8927,
      "небольшо": 8928,
      "Куда": 8929,
      "уско": 8930,
      "1993": 8931,
      "оригина": 8932,
      "материалов": 8933,
      "##ума": 8934,
      "син": 8935,
      "руководства": 8936,
      "используется": 8937,
      "##жности": 8938,
      "удара": 8939,
      "нарушение": 8940,
      "учреждения": 8941,
      "жан": 8942,
      "Отец": 8943,
      "обязанности": 8944,
      "##лича": 8945,
      "тет": 8946,
      "##метов": 8947,
      "##шила": 8948,
      "болезни": 8949,
      "причаст": 8950,
      "повез": 8951,
      "границе": 8952,
      "##ственности": 8953,
      "1995": 8954,
      "##бят": 8955,
      "ОБСЕ": 8956,
      "понимал": 8957,
      "##end": 8958,
      "##йдя": 8959,
      "##гнуть": 8960,
      "произошед": 8961,
      "политику": 8962,
      "63": 8963,
      "вов": 8964,
      "Гран": 8965,
      "продуктов": 8966,
      "трибу": 8967,
      "##правед": 8968,
      "Кро": 8969,
      "мин": 8970,
      "специалисты": 8971,
      "секунду": 8972,
      "пробе": 8973,
      "нос": 8974,
      "радика": 8975,
      "##поля": 8976,
      "удастся": 8977,
      "Хе": 8978,
      "поступил": 8979,
      "Земли": 8980,
      "рекорд": 8981,
      "##дана": 8982,
      "##льев": 8983,
      "сотрудничества": 8984,
      "выжи": 8985,
      "приво": 8986,
      "Германия": 8987,
      "лето": 8988,
      "приехал": 8989,
      "армей": 8990,
      "здоровья": 8991,
      "пенсион": 8992,
      "##тировал": 8993,
      "Испо": 8994,
      "##Рµ": 8995,
      "Сим": 8996,
      "Такие": 8997,
      "Одно": 8998,
      "##ss": 8999,
      "сторона": 9000,
      "смысла": 9001,
      "##рене": 9002,
      "Рича": 9003,
      "референ": 9004,
      "номина": 9005,
      "ладно": 9006,
      "Сталин": 9007,
      "судя": 9008,
      "возь": 9009,
      "крым": 9010,
      "##турой": 9011,
      "рассказать": 9012,
      "вечера": 9013,
      "Предпо": 9014,
      "динами": 9015,
      "аэропор": 9016,
      "услышал": 9017,
      "понимать": 9018,
      "киев": 9019,
      "этапе": 9020,
      "Сиби": 9021,
      "##ДР": 9022,
      "вашего": 9023,
      "обмен": 9024,
      "воде": 9025,
      "##брасы": 9026,
      "демонстри": 9027,
      "стене": 9028,
      "Авст": 9029,
      "потя": 9030,
      "600": 9031,
      "получает": 9032,
      "зак": 9033,
      "ля": 9034,
      "62": 9035,
      "##ровку": 9036,
      "##ud": 9037,
      "комменти": 9038,
      "забро": 9039,
      "ожи": 9040,
      "##нении": 9041,
      "окончил": 9042,
      "##тивов": 9043,
      "гимна": 9044,
      "##вати": 9045,
      "СН": 9046,
      "неизвестно": 9047,
      "растер": 9048,
      "принципе": 9049,
      "##щь": 9050,
      "##рк": 9051,
      "категории": 9052,
      "стой": 9053,
      "Пожалуй": 9054,
      "канала": 9055,
      "близко": 9056,
      "ремонт": 9057,
      "исключением": 9058,
      "Читайте": 9059,
      "занимался": 9060,
      "##емое": 9061,
      "губернии": 9062,
      "##брали": 9063,
      "считал": 9064,
      "като": 9065,
      "Давай": 9066,
      "##бый": 9067,
      "шоссе": 9068,
      "злоу": 9069,
      "##кового": 9070,
      "Бро": 9071,
      "Виль": 9072,
      "накло": 9073,
      "##деся": 9074,
      "немало": 9075,
      "Зак": 9076,
      "##зме": 9077,
      "##праши": 9078,
      "##бал": 9079,
      "объяснил": 9080,
      "попали": 9081,
      "шанс": 9082,
      "##рис": 9083,
      "Право": 9084,
      "##ченного": 9085,
      "понадоби": 9086,
      "примет": 9087,
      "##вяза": 9088,
      "##вказ": 9089,
      "опасности": 9090,
      "##москов": 9091,
      "стоят": 9092,
      "##рели": 9093,
      "Арм": 9094,
      "имела": 9095,
      "##ющейся": 9096,
      "думала": 9097,
      "покой": 9098,
      "95": 9099,
      "эль": 9100,
      "больницу": 9101,
      "Отмеча": 9102,
      "встречу": 9103,
      "угол": 9104,
      "доллара": 9105,
      "крат": 9106,
      "##сель": 9107,
      "лети": 9108,
      "медицин": 9109,
      "##шель": 9110,
      "вытащи": 9111,
      "##мули": 9112,
      "подчерки": 9113,
      "блока": 9114,
      "личности": 9115,
      "99": 9116,
      "Новосибир": 9117,
      "##швили": 9118,
      "вызывает": 9119,
      "вон": 9120,
      "фар": 9121,
      "##ющимся": 9122,
      "журналистов": 9123,
      "бумаги": 9124,
      "женщину": 9125,
      "съе": 9126,
      "тенни": 9127,
      "Боже": 9128,
      "##жеб": 9129,
      "уши": 9130,
      "эми": 9131,
      "платить": 9132,
      "интеллек": 9133,
      "предпочита": 9134,
      "получится": 9135,
      "отказаться": 9136,
      "прошеп": 9137,
      "##бек": 9138,
      "телевид": 9139,
      "##дея": 9140,
      "##тства": 9141,
      "АТО": 9142,
      "76": 9143,
      "волн": 9144,
      "заг": 9145,
      "министерства": 9146,
      "##бет": 9147,
      "евре": 9148,
      "##ченным": 9149,
      "сидя": 9150,
      "##тическая": 9151,
      "пусто": 9152,
      "оса": 9153,
      "услуги": 9154,
      "##чалась": 9155,
      "боевой": 9156,
      "Солн": 9157,
      "##син": 9158,
      "третьего": 9159,
      "раско": 9160,
      "##днев": 9161,
      "грана": 9162,
      "сон": 9163,
      "частей": 9164,
      "чём": 9165,
      "инциден": 9166,
      "изменить": 9167,
      "##ванных": 9168,
      "правоохранительных": 9169,
      "результатам": 9170,
      "положении": 9171,
      "веща": 9172,
      "##ack": 9173,
      "произведения": 9174,
      "Нау": 9175,
      "тема": 9176,
      "Советского": 9177,
      "имеется": 9178,
      "Руко": 9179,
      "консульта": 9180,
      "границу": 9181,
      "футбола": 9182,
      "переход": 9183,
      "##скочил": 9184,
      "##лика": 9185,
      "##ври": 9186,
      "прер": 9187,
      "Thunder": 9188,
      "материаль": 9189,
      "веру": 9190,
      "оскорб": 9191,
      "##яр": 9192,
      "опаса": 9193,
      "сыграл": 9194,
      "законом": 9195,
      "##пира": 9196,
      "ногами": 9197,
      "приятно": 9198,
      "поправ": 9199,
      "##стил": 9200,
      "попробо": 9201,
      "легче": 9202,
      "##хождение": 9203,
      "сказано": 9204,
      "##тения": 9205,
      "мошен": 9206,
      "планеты": 9207,
      "Свобо": 9208,
      "разумеется": 9209,
      "допуска": 9210,
      "##вий": 9211,
      "использование": 9212,
      "Дра": 9213,
      "кресло": 9214,
      "Уо": 9215,
      "новом": 9216,
      "размыш": 9217,
      "посмотрела": 9218,
      "вопросу": 9219,
      "оставалось": 9220,
      "академии": 9221,
      "Гит": 9222,
      "ресурсы": 9223,
      "Северо": 9224,
      "De": 9225,
      "Большо": 9226,
      "совершил": 9227,
      "фло": 9228,
      "твои": 9229,
      "##шинство": 9230,
      "Андрея": 9231,
      "Донбасса": 9232,
      "ауди": 9233,
      "ассоциации": 9234,
      "сегодняшний": 9235,
      "##нными": 9236,
      "##ниям": 9237,
      "мск": 9238,
      "пограни": 9239,
      "прокомментировал": 9240,
      "наря": 9241,
      "олимпий": 9242,
      "##вто": 9243,
      "##ционное": 9244,
      "институт": 9245,
      "тари": 9246,
      "руководителя": 9247,
      "##движи": 9248,
      "ваша": 9249,
      "##пала": 9250,
      "##ципли": 9251,
      "##бормо": 9252,
      "##тяну": 9253,
      "проби": 9254,
      "Викто": 9255,
      "улыбнулась": 9256,
      "Похоже": 9257,
      "представителя": 9258,
      "##uters": 9259,
      "##мно": 9260,
      "Севасто": 9261,
      "отставку": 9262,
      "именем": 9263,
      "всякий": 9264,
      "##ГУ": 9265,
      "противополо": 9266,
      "альтерна": 9267,
      "имею": 9268,
      "##рим": 9269,
      "ходить": 9270,
      "впрочем": 9271,
      "самолё": 9272,
      "##дие": 9273,
      "житель": 9274,
      "1970": 9275,
      "##стической": 9276,
      "приняла": 9277,
      "бюро": 9278,
      "##кола": 9279,
      "ближайшие": 9280,
      "будучи": 9281,
      "сеть": 9282,
      "##голь": 9283,
      "оружием": 9284,
      "дорого": 9285,
      "скончался": 9286,
      "##se": 9287,
      "##ваюсь": 9288,
      "музей": 9289,
      "дорога": 9290,
      "##зю": 9291,
      "Какие": 9292,
      "лам": 9293,
      "сумел": 9294,
      "изменений": 9295,
      "##воохран": 9296,
      "вя": 9297,
      "##коль": 9298,
      "добавля": 9299,
      "##вающие": 9300,
[...]
